// Auto-generated TinyNav quantized model bytes
#ifndef MODEL_DATA_H
#define MODEL_DATA_H

const unsigned char model_data[] = {
    0x20, 0x00, 0x00, 0x00, 0x54, 0x46, 0x4c, 0x33, 0x00, 0x00, 0x00, 0x00, 0x14, 0x00, 0x20, 0x00, 0x1c, 0x00, 0x18, 0x00, 0x14, 0x00, 0x10, 0x00, 0x0c, 0x00, 0x00, 0x00, 0x08, 0x00, 0x04, 0x00, 0x14, 0x00, 0x00, 0x00, 0x1c, 0x00, 0x00, 0x00, 0x8c, 0x00, 0x00, 0x00, 0xe4, 0x00, 0x00, 0x00, 0x90, 0x66, 0x00, 0x00, 0xa0, 0x66, 0x00, 0x00, 0xf4, 0x81, 0x00, 0x00, 0x03, 0x00, 0x00, 0x00, 0x01, 0x00, 0x00, 0x00, 0x04, 0x00, 0x00, 0x00, 0x7e, 0x98, 0xff, 0xff, 0x0c, 0x00, 0x00, 0x00, 0x1c, 0x00, 0x00, 0x00, 0x3c, 0x00, 0x00, 0x00, 0x0f, 0x00, 0x00, 0x00, 0x73, 0x65, 0x72, 0x76, 0x69, 0x6e, 0x67, 0x5f, 0x64, 0x65, 0x66, 0x61, 0x75, 0x6c, 0x74, 0x00, 0x01, 0x00, 0x00, 0x00, 0x04, 0x00, 0x00, 0x00, 0x90, 0xff, 0xff, 0xff, 0x17, 0x00, 0x00, 0x00, 0x04, 0x00, 0x00, 0x00, 0x08, 0x00, 0x00, 0x00, 0x6f, 0x75, 0x74, 0x70, 0x75, 0x74, 0x5f, 0x30, 0x00, 0x00, 0x00, 0x00, 0x01, 0x00, 0x00, 0x00, 0x04, 0x00, 0x00, 0x00, 0xfa, 0x99, 0xff, 0xff, 0x04, 0x00, 0x00, 0x00, 0x0f, 0x00, 0x00, 0x00, 0x6b, 0x65, 0x72, 0x61, 0x73, 0x5f, 0x74, 0x65, 0x6e, 0x73, 0x6f, 0x72, 0x5f, 0x31, 0x38, 0x00, 0x02, 0x00, 0x00, 0x00, 0x34, 0x00, 0x00, 0x00, 0x04, 0x00, 0x00, 0x00, 0xdc, 0xff, 0xff, 0xff, 0x1a, 0x00, 0x00, 0x00, 0x04, 0x00, 0x00, 0x00, 0x13, 0x00, 0x00, 0x00, 0x43, 0x4f, 0x4e, 0x56, 0x45, 0x52, 0x53, 0x49, 0x4f, 0x4e, 0x5f, 0x4d, 0x45, 0x54, 0x41, 0x44, 0x41, 0x54, 0x41, 0x00, 0x08, 0x00, 0x0c, 0x00, 0x08, 0x00, 0x04, 0x00, 0x08, 0x00, 0x00, 0x00, 0x19, 0x00, 0x00, 0x00, 0x04, 0x00, 0x00, 0x00, 0x13, 0x00, 0x00, 0x00, 0x6d, 0x69, 0x6e, 0x5f, 0x72, 0x75, 0x6e, 0x74, 0x69, 0x6d, 0x65, 0x5f, 0x76, 0x65, 0x72, 0x73, 0x69, 0x6f, 0x6e, 0x00, 0x1b, 0x00, 0x00, 0x00, 0xa8, 0x65, 0x00, 0x00, 0xa0, 0x65, 0x00, 0x00, 0x88, 0x65, 0x00, 0x00, 0x64, 0x65, 0x00, 0x00, 0x24, 0x65, 0x00, 0x00, 0xd4, 0x64, 0x00, 0x00, 0xc4, 0x44, 0x00, 0x00, 0x34, 0x44, 0x00, 0x00, 0x24, 0x20, 0x00, 0x00, 0x94, 0x1f, 0x00, 0x00, 0x84, 0x0d, 0x00, 0x00, 0x34, 0x0d, 0x00, 0x00, 0xa4, 0x08, 0x00, 0x00, 0x74, 0x08, 0x00, 0x00, 0x44, 0x07, 0x00, 0x00, 0x24, 0x07, 0x00, 0x00, 0xd4, 0x00, 0x00, 0x00, 0xcc, 0x00, 0x00, 0x00, 0xc4, 0x00, 0x00, 0x00, 0xbc, 0x00, 0x00, 0x00, 0xb4, 0x00, 0x00, 0x00, 0xac, 0x00, 0x00, 0x00, 0xa4, 0x00, 0x00, 0x00, 0x9c, 0x00, 0x00, 0x00, 0x94, 0x00, 0x00, 0x00, 0x74, 0x00, 0x00, 0x00, 0x04, 0x00, 0x00, 0x00, 0xe2, 0x9a, 0xff, 0xff, 0x04, 0x00, 0x00, 0x00, 0x60, 0x00, 0x00, 0x00, 0x0c, 0x00, 0x00, 0x00, 0x08, 0x00, 0x0e, 0x00, 0x08, 0x00, 0x04, 0x00, 0x08, 0x00, 0x00, 0x00, 0x10, 0x00, 0x00, 0x00, 0x28, 0x00, 0x00, 0x00, 0x00, 0x00, 0x06, 0x00, 0x08, 0x00, 0x04, 0x00, 0x06, 0x00, 0x00, 0x00, 0x04, 0x00, 0x00, 0x00, 0x01, 0x00, 0x00, 0x00, 0xeb, 0x03, 0x00, 0x00, 0x0c, 0x00, 0x18, 0x00, 0x14, 0x00, 0x10, 0x00, 0x0c, 0x00, 0x04, 0x00, 0x0c, 0x00, 0x00, 0x00, 0x31, 0xbe, 0xa4, 0x30, 0xef, 0x65, 0x25, 0x40, 0x02, 0x00, 0x00, 0x00, 0x02, 0x00, 0x00, 0x00, 0x04, 0x00, 0x00, 0x00, 0x06, 0x00, 0x00, 0x00, 0x32, 0x2e, 0x32, 0x31, 0x2e, 0x30, 0x00, 0x00, 0x4e, 0x9b, 0xff, 0xff, 0x04, 0x00, 0x00, 0x00, 0x10, 0x00, 0x00, 0x00, 0x31, 0x2e, 0x31, 0x34, 0x2e, 0x30, 0x00, 0x00, 0x00, 0x00, 0x00, 0x00, 0x00, 0x00, 0x00, 0x00, 0x9c, 0x80, 0xff, 0xff, 0xa0, 0x80, 0xff, 0xff, 0xa4, 0x80, 0xff, 0xff, 0xa8, 0x80, 0xff, 0xff, 0xac, 0x80, 0xff, 0xff, 0xb0, 0x80, 0xff, 0xff, 0xb4, 0x80, 0xff, 0xff, 0xb8, 0x80, 0xff, 0xff, 0x8a, 0x9b, 0xff, 0xff, 0x04, 0x00, 0x00, 0x00, 0x40, 0x06, 0x00, 0x00, 0xb4, 0xc4, 0x4f, 0x01, 0x04, 0xdd, 0xef, 0x5e, 0xf9, 0xe8, 0x10, 0x97, 0x98, 0x11, 0x1e, 0x43, 0xcb, 0x37, 0xe7, 0x39, 0xd2, 0xbd, 0xb2, 0x58, 0x97, 0x9c, 0x46, 0xc5, 0x8f, 0xae, 0x0f, 0xdf, 0xf4, 0xf7, 0xc4, 0x34, 0xfb, 0x1a, 0x48, 0xb5, 0x44, 0x30, 0xbb, 0xa6, 0x09, 0x57, 0xed, 0x99, 0xb2, 0x24, 0xcb, 0xc3, 0x01, 0x53, 0xf3, 0x3e, 0xc7, 0xbd, 0xe2, 0xb9, 0xe2, 0x03, 0xe6, 0xf0, 0xaf, 0xbe, 0xc8, 0xa2, 0xbf, 0xce, 0xd1, 0x5d, 0x0b, 0x3c, 0x1a, 0x1e, 0x16, 0x21, 0x4d, 0x9d, 0xdb, 0xb3, 0xf8, 0x18, 0x53, 0xa7, 0x01, 0x1a, 0x51, 0x5b, 0xc1, 0x50, 0x4d, 0x47, 0xc5, 0x28, 0x24, 0xaa, 0x14, 0x22, 0xaa, 0x2f, 0x5c, 0x35, 0xc1, 0x2e, 0x66, 0x17, 0xce, 0x21, 0x52, 0xf3, 0xdd, 0x60, 0xbf, 0x99, 0x27, 0x14, 0xc1, 0xd5, 0xfb, 0x08, 0xa4, 0x0c, 0xa0, 0xaa, 0xd4, 0x8a, 0x56, 0xbf, 0xb4, 0xb6, 0x2a, 0xda, 0xf9, 0x2b, 0xb1, 0x3a, 0xb9, 0x96, 0xa9, 0xe4, 0xcd, 0xbd, 0x39, 0xe7, 0xee, 0xb5, 0xc7, 0xa7, 0x2d, 0x4f, 0xec, 0xeb, 0x39, 0x42, 0x3c, 0xed, 0x2f, 0xc3, 0xd0, 0x9f, 0x2b, 0x52, 0xfa, 0x3e, 0xd2, 0xda, 0xc6, 0xfc, 0x33, 0x46, 0x9c, 0x04, 0x5a, 0xfd, 0xa6, 0x92, 0x2e, 0xc3, 0xc3, 0xc0, 0xe9, 0x39, 0xba, 0xa1, 0xa7, 0x13, 0x91, 0x9f, 0xc4, 0xd1, 0x58, 0xca, 0xac, 0x2f, 0xd9, 0x2f, 0xb3, 0x5c, 0x3d, 0xa8, 0x03, 0x16, 0xa0, 0x9c, 0x3a, 0xf7, 0xe2, 0xc9, 0xec, 0x30, 0xaf, 0x4e, 0xfd, 0xa2, 0x45, 0xa8, 0xab, 0x1f, 0xa4, 0xc2, 0x3e, 0xd4, 0xab, 0x01, 0xa7, 0x32, 0xaf, 0xda, 0x4d, 0xa0, 0x3c, 0x54, 0xa6, 0x1b, 0xad, 0x51, 0x1b, 0xfc, 0x1a, 0xd9, 0xf2, 0x0a, 0xa4, 0x9a, 0xe9, 0xed, 0x61, 0x5a, 0x1a, 0x38, 0x9d, 0x55, 0xb8, 0xc0, 0xfa, 0xfc, 0x3f, 0x4b, 0x2c, 0xb2, 0x3b, 0xd3, 0xb6, 0xdc, 0x0d, 0xd1, 0x9d, 0x4a, 0x3b, 0xff, 0xf5, 0xfc, 0x18, 0xaa, 0xf1, 0xf2, 0xa2, 0xd4, 0x23, 0x56, 0x1a, 0x20, 0x10, 0xb9, 0x12, 0x91, 0xb0, 0x23, 0xc5, 0xe8, 0x2d, 0x02, 0x49, 0x9c, 0x2c, 0xec, 0xc1, 0xe2, 0xd9, 0x00, 0xca, 0xb8, 0xfb, 0x10, 0xd5, 0xb6, 0xd6, 0xb9, 0x0a, 0x36, 0x11, 0x9a, 0x2b, 0xaa, 0xc1, 0x2c, 0x13, 0x81, 0x07, 0x4e, 0xe8, 0x09, 0xbe, 0x1a, 0x4a, 0x45, 0xab, 0x48, 0x0d, 0xdf, 0xe9, 0x28, 0xcc, 0x9e, 0x50, 0xa5, 0x55, 0x20, 0x2d, 0x19, 0x35, 0x25, 0x11, 0x32, 0x5a, 0x12, 0xc2, 0x2d, 0x27, 0xde, 0xa5, 0x0d, 0x0d, 0xb6, 0x4f, 0xc5, 0x50, 0x23, 0xd0, 0x2d, 0x1a, 0xdd, 0x1e, 0x41, 0x93, 0x0c, 0x07, 0xe8, 0x12, 0x37, 0xbe, 0xe1, 0xc3, 0x59, 0x39, 0xe0, 0x29, 0xcd, 0x8f, 0x9c, 0xf3, 0xef, 0xcd, 0x22, 0xe3, 0x09, 0x5c, 0xde, 0x5b, 0x1b, 0xdc, 0x3e, 0xff, 0xe8, 0x42, 0xfb, 0xbf, 0xb6, 0x22, 0x06, 0x1d, 0xf9, 0x14, 0x17, 0x20, 0xe0, 0x19, 0x1d, 0x1b, 0xdd, 0x0a, 0x00, 0x1a, 0x68, 0x09, 0xd8, 0x00, 0x12, 0x24, 0x1f, 0x09, 0xdf, 0x1e, 0x0a, 0xda, 0x1a, 0xf0, 0x1c, 0xf9, 0x7c, 0xf2, 0xec, 0x02, 0xd3, 0x0e, 0x15, 0x21, 0xf5, 0xe8, 0xeb, 0xd2, 0x17, 0xe1, 0xee, 0x01, 0x5d, 0xfb, 0x0f, 0x07, 0x0a, 0xde, 0x13, 0xe1, 0x0a, 0x1c, 0xf0, 0xf3, 0x1e, 0xff, 0xff, 0x1b, 0x46, 0x0b, 0xfd, 0xf2, 0xfc, 0x13, 0xf2, 0x0b, 0x19, 0xee, 0xe9, 0xd2, 0xf9, 0x01, 0xe1, 0xec, 0x2d, 0x01, 0x13, 0xda, 0x16, 0xf5, 0xee, 0xf7, 0xf1, 0xdf, 0xef, 0xdb, 0xef, 0x0d, 0xfc, 0x0f, 0x73, 0xe1, 0xe1, 0x0c, 0xdc, 0x1a, 0x0c, 0x15, 0x22, 0xe9, 0x1d, 0xf6, 0xf3, 0x0e, 0x05, 0x1c, 0x47, 0xf3, 0x1d, 0xf8, 0x01, 0x1d, 0x25, 0x0c, 0xdf, 0x1d, 0x13, 0x04, 0xfc, 0x02, 0x1d, 0xfe, 0x47, 0xf2, 0xe5, 0xf9, 0xd9, 0xfb, 0xff, 0x18, 0x23, 0x16, 0x1f, 0xea, 0x09, 0x15, 0xe7, 0xf7, 0x58, 0xfd, 0x1a, 0x1b, 0x03, 0x10, 0xe5, 0x25, 0x17, 0x08, 0xed, 0xea, 0x08, 0xeb, 0x16, 0x0d, 0x78, 0xe6, 0x10, 0xef, 0xdb, 0x0b, 0xe0, 0xf4, 0x0c, 0xe1, 0xe3, 0x16, 0xf6, 0xf7, 0xe8, 0x1f, 0x5a, 0x19, 0xee, 0x12, 0x09, 0x08, 0x09, 0xea, 0x13, 0x0b, 0x25, 0xf3, 0xed, 0x25, 0x03, 0xe8, 0x40, 0x23, 0xe4, 0x22, 0xf6, 0x28, 0xf7, 0x05, 0xf2, 0x0c, 0xf5, 0x1f, 0x0c, 0x21, 0x16, 0x11, 0x5f, 0x1f, 0xee, 0xf4, 0x20, 0x19, 0xe3, 0x2b, 0x00, 0x1a, 0xf5, 0x1a, 0x04, 0xe6, 0xfa, 0x0d, 0x7f, 0x0b, 0x03, 0x19, 0xd6, 0x08, 0xe9, 0xe3, 0xe3, 0xfa, 0xf5, 0x12, 0xfe, 0x1f, 0xfd, 0x17, 0x62, 0x12, 0x1c, 0x1a, 0x1d, 0xe8, 0xdf, 0x11, 0x14, 0x06, 0xea, 0xf2, 0xf0, 0x15, 0xe5, 0x02, 0x5c, 0x18, 0x14, 0xdd, 0x15, 0xd9, 0xd6, 0xfb, 0xd4, 0x18, 0x20, 0x1e, 0xef, 0xf0, 0x0e, 0xee, 0x6b, 0x11, 0xf9, 0x07, 0x14, 0xf9, 0x09, 0x0e, 0xe0, 0xf4, 0xe6, 0x05, 0xf6, 0xe6, 0x06, 0x24, 0x7d, 0xf9, 0xed, 0xd9, 0xeb, 0xf6, 0xf9, 0x1c, 0x06, 0xd9, 0xf0, 0x17, 0xf3, 0x17, 0xf1, 0xee, 0x56, 0xfe, 0x05, 0xee, 0x01, 0xdb, 0xf5, 0xee, 0xed, 0x07, 0xf9, 0xf3, 0x16, 0xff, 0xed, 0x28, 0x72, 0xdd, 0x0f, 0xed, 0xfa, 0xdd, 0xd0, 0xed, 0xd3, 0xf3, 0xd6, 0x05, 0x17, 0xd2, 0xed, 0xe4, 0x3a, 0x10, 0xea, 0x0a, 0x17, 0xe7, 0xe3, 0xd1, 0x0e, 0xfe, 0xeb, 0x05, 0xf4, 0x0b, 0x0d, 0x21, 0x57, 0xd5, 0x0b, 0xe8, 0x0e, 0xd6, 0xf6, 0xdf, 0x0a, 0xe7, 0xf2, 0xd4, 0xe4, 0xdb, 0xeb, 0x0f, 0x42, 0xfd, 0x17, 0x1b, 0xf4, 0xf1, 0xeb, 0xeb, 0x01, 0xe5, 0xd3, 0x09, 0xe9, 0xea, 0x20, 0xf8, 0x52, 0xfe, 0xf9, 0xdc, 0x07, 0xe9, 0xdd, 0xf5, 0xd0, 0x07, 0x19, 0x14, 0xe5, 0x00, 0x1f, 0xf1, 0x67, 0x01, 0xd3, 0x48, 0x17, 0x54, 0xa7, 0x21, 0x97, 0x18, 0xa2, 0x45, 0x28, 0xba, 0xe9, 0x42, 0x1e, 0xad, 0xba, 0xb4, 0x0c, 0xf8, 0x2b, 0x09, 0xe9, 0x52, 0xf0, 0xde, 0xd4, 0x20, 0xa7, 0xea, 0xce, 0xf1, 0x26, 0x44, 0x2e, 0xd3, 0xce, 0x1b, 0x4d, 0xd1, 0xe0, 0x62, 0xc1, 0xc3, 0x32, 0x07, 0xf1, 0x8f, 0xb4, 0xe3, 0x60, 0x1a, 0x2a, 0xb1, 0xcd, 0x0b, 0x85, 0x47, 0x0f, 0xa1, 0x03, 0x42, 0x1b, 0xc9, 0xfb, 0xbb, 0x97, 0xc8, 0xa0, 0xa8, 0x9a, 0x8d, 0x36, 0x4e, 0x28, 0x25, 0xbc, 0xa0, 0x1a, 0xba, 0x23, 0x94, 0x1e, 0x5a, 0xb2, 0xe6, 0x4a, 0xb7, 0xc4, 0x26, 0x14, 0x05, 0xfb, 0xde, 0x29, 0xb0, 0x34, 0x2d, 0x0c, 0x56, 0x99, 0xe0, 0x05, 0xb2, 0xc3, 0xcf, 0xf4, 0x06, 0xd3, 0xee, 0xc1, 0x26, 0x4b, 0x57, 0xdb, 0x4b, 0x4c, 0xa6, 0x1a, 0x03, 0xa0, 0xfd, 0x99, 0xf1, 0x9f, 0xdb, 0x5a, 0x46, 0xb1, 0xe9, 0x0d, 0x67, 0xc9, 0xcc, 0xc4, 0x5a, 0x44, 0xb7, 0x2b, 0xa2, 0xee, 0x42, 0xda, 0xf9, 0xd3, 0x14, 0x53, 0xdd, 0xae, 0x9c, 0x18, 0xa7, 0x3b, 0xe3, 0x3b, 0x14, 0x5e, 0xf6, 0x1a, 0x81, 0xfc, 0xec, 0xee, 0xb3, 0x8d, 0xfd, 0x0c, 0xf2, 0xd0, 0x46, 0x67, 0x14, 0xaa, 0xcc, 0xc1, 0x04, 0xf7, 0xf1, 0x18, 0x26, 0xbe, 0x32, 0x15, 0x5f, 0x35, 0x2f, 0xe6, 0x96, 0x41, 0xe9, 0xd4, 0xf6, 0x87, 0x23, 0x4e, 0x24, 0x50, 0xb6, 0xe0, 0xf6, 0xdd, 0x42, 0xf3, 0x0a, 0xd8, 0x22, 0x05, 0x43, 0x8b, 0xc2, 0xcc, 0x02, 0xe5, 0x31, 0xcf, 0x3c, 0xfc, 0xf7, 0x5c, 0x5b, 0x50, 0x5d, 0xee, 0x57, 0x86, 0x02, 0x00, 0x16, 0xad, 0xdc, 0x0b, 0xe8, 0xcb, 0x54, 0x65, 0xa0, 0x16, 0xb7, 0x0d, 0x0a, 0xea, 0x45, 0xb4, 0xbf, 0x5e, 0xaf, 0x8b, 0x9a, 0xae, 0x5d, 0xa1, 0x41, 0x92, 0xcb, 0x03, 0x2c, 0xf1, 0x9e, 0x3b, 0x29, 0x36, 0xc6, 0xc0, 0xbd, 0x59, 0x4d, 0xc0, 0xaa, 0xd4, 0xc4, 0x1c, 0xb0, 0x9c, 0xa7, 0x1d, 0xb1, 0xe9, 0x05, 0x93, 0xfd, 0x8d, 0x29, 0x4f, 0x37, 0xe9, 0x36, 0xe6, 0xa7, 0xab, 0xcd, 0xa3, 0xe4, 0x0c, 0x2a, 0x54, 0xc9, 0x06, 0xee, 0x42, 0xc9, 0xfa, 0x54, 0xf1, 0xd3, 0xe0, 0x3f, 0xd8, 0x2d, 0x29, 0xd6, 0x50, 0xf9, 0x95, 0xd4, 0x2a, 0x14, 0xdc, 0x9e, 0x00, 0xa2, 0x59, 0xbc, 0xc6, 0x39, 0x16, 0x29, 0x95, 0x2a, 0x1e, 0x20, 0x42, 0xe3, 0x37, 0x52, 0xf5, 0xac, 0x1d, 0xc7, 0x59, 0x97, 0x07, 0x60, 0x4e, 0x53, 0xa0, 0xcb, 0x29, 0x4e, 0x0d, 0x9b, 0x30, 0x92, 0x32, 0x9c, 0xd8, 0xd3, 0xb5, 0x0e, 0xaf, 0x24, 0xd9, 0xa5, 0x64, 0x5f, 0xd7, 0x19, 0xd2, 0x03, 0x31, 0x05, 0x4e, 0xb5, 0x17, 0xe1, 0x3a, 0x98, 0xe0, 0x1d, 0xfe, 0xc2, 0x49, 0xe4, 0xcf, 0x41, 0xa1, 0xa6, 0xfd, 0xa6, 0xe4, 0xf4, 0x1e, 0xbd, 0x40, 0x9e, 0x49, 0xe1, 0xc2, 0x98, 0xdb, 0x1e, 0xef, 0x62, 0xb4, 0xb5, 0x28, 0x4e, 0xed, 0x3f, 0x57, 0xde, 0xc5, 0x47, 0xf8, 0xb2, 0x58, 0x5b, 0x05, 0x00, 0x17, 0x5a, 0xe1, 0x5c, 0xbc, 0xb1, 0xed, 0x5a, 0x0b, 0xcf, 0x59, 0xb4, 0xc1, 0xa3, 0x25, 0xe6, 0xeb, 0x93, 0xed, 0x84, 0xcb, 0xd6, 0xfa, 0xc6, 0x16, 0xc2, 0xbc, 0xfb, 0x69, 0x60, 0xbe, 0xf9, 0x44, 0x2f, 0x1d, 0xc3, 0xbf, 0x55, 0x93, 0x17, 0xe8, 0x31, 0x8d, 0x6d, 0x46, 0x63, 0xc3, 0x5c, 0x8e, 0xe5, 0x48, 0xca, 0x4d, 0xd8, 0x28, 0xf0, 0x9a, 0xf1, 0xa4, 0xdd, 0xb9, 0xa1, 0xff, 0x1c, 0x2b, 0x44, 0x89, 0xb5, 0x34, 0xd1, 0xff, 0xb5, 0x3e, 0x45, 0x9d, 0xdf, 0xc5, 0xb9, 0x35, 0x17, 0xfe, 0xc1, 0x66, 0xf9, 0xc6, 0x40, 0xe1, 0xc6, 0xe1, 0x6c, 0x9f, 0xa8, 0xe7, 0x96, 0x81, 0xce, 0x3f, 0x88, 0x3f, 0x9e, 0xf1, 0x9d, 0x1f, 0x0e, 0xb7, 0x25, 0xeb, 0xe3, 0x01, 0xe8, 0xe5, 0x96, 0x47, 0x28, 0x5e, 0x9c, 0xd4, 0x45, 0x31, 0x91, 0x1e, 0x3f, 0xb6, 0xf3, 0x05, 0x5f, 0xf8, 0x9d, 0xa8, 0x40, 0xc8, 0xa8, 0x99, 0x65, 0xb8, 0xf2, 0xb0, 0xfc, 0x65, 0xbe, 0xe1, 0xde, 0x42, 0x41, 0xab, 0x86, 0x08, 0x45, 0xe6, 0x89, 0xa1, 0x28, 0xca, 0xfe, 0x14, 0xe0, 0x3d, 0xf8, 0x55, 0x21, 0x44, 0x1b, 0x17, 0x05, 0xb2, 0x2e, 0xf2, 0x67, 0x3c, 0x25, 0x43, 0x41, 0x09, 0xaa, 0x91, 0xfb, 0x93, 0x50, 0xc3, 0xb6, 0x98, 0x30, 0xf7, 0x6f, 0x49, 0x2d, 0x20, 0xdf, 0xaa, 0x8e, 0x1e, 0xc3, 0x8d, 0xc8, 0x36, 0xac, 0xec, 0x9b, 0xce, 0xab, 0xbb, 0xa0, 0xfb, 0xea, 0x48, 0x49, 0x94, 0xc0, 0xbd, 0xc8, 0x90, 0xc7, 0x9b, 0xea, 0xe1, 0x1c, 0xa0, 0xf2, 0x06, 0xe8, 0xcc, 0x2c, 0xdc, 0x57, 0x22, 0xeb, 0x0b, 0xd4, 0x2b, 0x54, 0xdc, 0xb5, 0x67, 0xd3, 0x95, 0xd8, 0xa4, 0xd8, 0x3b, 0xd1, 0xea, 0x3e, 0xb8, 0xda, 0xef, 0x29, 0xe2, 0x4a, 0x5f, 0x2f, 0x47, 0x02, 0x26, 0x15, 0x89, 0xcc, 0x91, 0xec, 0x23, 0xf0, 0x83, 0x6f, 0x52, 0x2d, 0x9b, 0xa3, 0x0c, 0x14, 0xbb, 0xcd, 0xa2, 0x5e, 0x17, 0xef, 0x4f, 0xc3, 0xf1, 0x56, 0x57, 0xea, 0x94, 0x3d, 0xa0, 0xb1, 0xab, 0x45, 0x03, 0x33, 0xde, 0x52, 0xb8, 0x1a, 0x06, 0xa1, 0xbf, 0x16, 0x35, 0xe4, 0xbb, 0xc9, 0x96, 0x2d, 0x54, 0x27, 0x2a, 0x62, 0x5b, 0x98, 0x8d, 0x58, 0x33, 0xf6, 0xc8, 0x41, 0x4b, 0xbe, 0xa3, 0x3e, 0x08, 0x88, 0x8b, 0x86, 0x96, 0x49, 0xda, 0xe4, 0x1d, 0xa4, 0x10, 0xc7, 0x40, 0xf5, 0x44, 0x4e, 0xca, 0x9c, 0xae, 0x1f, 0x4d, 0x8d, 0x8f, 0x3b, 0xa5, 0x5f, 0xcb, 0x36, 0xd6, 0x51, 0xd8, 0x88, 0xaf, 0xe8, 0x52, 0xc0, 0x18, 0x83, 0x1e, 0x94, 0xfb, 0x50, 0x31, 0x13, 0xe6, 0xd2, 0x39, 0x93, 0xe9, 0x86, 0x1f, 0x38, 0xc4, 0x46, 0xbf, 0xc8, 0x3c, 0x9f, 0x19, 0x9a, 0xb4, 0x11, 0x94, 0xd6, 0xa1, 0xff, 0xff, 0x04, 0x00, 0x00, 0x00, 0x10, 0x00, 0x00, 0x00, 0xc2, 0x05, 0x00, 0x00, 0x00, 0xd6, 0xff, 0xff, 0x83, 0x12, 0x00, 0x00, 0x03, 0xf7, 0xff, 0xff, 0xf2, 0xa1, 0xff, 0xff, 0x04, 0x00, 0x00, 0x00, 0x20, 0x01, 0x00, 0x00, 0xa8, 0x81, 0x4d, 0x66, 0x31, 0x56, 0xfe, 0xfc, 0xef, 0x9d, 0x4d, 0x68, 0x37, 0x97, 0xfa, 0xf7, 0xe2, 0xd1, 0x8c, 0xee, 0x1c, 0xf7, 0x28, 0xb6, 0x02, 0xbc, 0xe5, 0xfb, 0x33, 0x72, 0x1e, 0xf7, 0xbd, 0x59, 0x60, 0x29, 0xc1, 0xb0, 0x63, 0x94, 0x94, 0xc7, 0x01, 0x87, 0xa1, 0xad, 0x10, 0xc2, 0x1a, 0x70, 0x99, 0x81, 0x9e, 0x64, 0xf2, 0x09, 0x15, 0x8e, 0xcf, 0x5e, 0x6d, 0x53, 0xca, 0xea, 0x50, 0x3f, 0x81, 0x0f, 0x5f, 0x65, 0xdd, 0xcb, 0x28, 0x7f, 0x96, 0xc6, 0x1a, 0xf3, 0xb6, 0x2f, 0xfa, 0x45, 0xbb, 0x06, 0x2e, 0x07, 0x9d, 0x5e, 0xac, 0xbe, 0xcf, 0x1e, 0x4b, 0x54, 0xec, 0xf6, 0xa1, 0x9f, 0xc1, 0x86, 0x44, 0x7b, 0xb5, 0xf4, 0x89, 0x21, 0x09, 0x35, 0xaa, 0xc1, 0xac, 0xa5, 0x40, 0x9e, 0xd4, 0x2b, 0x41, 0xee, 0x2b, 0x3e, 0x2f, 0xc0, 0x09, 0x01, 0xef, 0x0c, 0x9d, 0xad, 0xcd, 0x81, 0x27, 0xfa, 0xdd, 0xeb, 0xb1, 0x52, 0x41, 0x07, 0xc5, 0xfa, 0x76, 0x24, 0x51, 0xea, 0x48, 0xff, 0x53, 0xea, 0xa6, 0x07, 0xea, 0xf6, 0x95, 0x7f, 0xf2, 0x11, 0x60, 0xb0, 0x34, 0xd0, 0xbc, 0x03, 0x37, 0x52, 0xf9, 0x71, 0xb6, 0xe0, 0xe2, 0xc7, 0xea, 0x38, 0x1c, 0x02, 0x9c, 0x38, 0xa6, 0x48, 0xf9, 0xa7, 0xa6, 0x2f, 0xd4, 0xcc, 0x13, 0x2c, 0x29, 0xc8, 0x98, 0xfa, 0xe8, 0xf1, 0x98, 0x6a, 0xd5, 0xdc, 0x6d, 0xaa, 0xa8, 0xd6, 0xe4, 0xe4, 0xc2, 0xf2, 0x94, 0x81, 0xd0, 0x02, 0x20, 0x4d, 0x3e, 0x64, 0x01, 0xae, 0x2a, 0x8c, 0x10, 0xb1, 0x07, 0x00, 0xb8, 0xfb, 0xb3, 0xf4, 0xb6, 0xdd, 0x0f, 0xe7, 0x45, 0xe7, 0x27, 0x27, 0xb0, 0xda, 0xb8, 0x13, 0x08, 0xc0, 0x24, 0xd3, 0x15, 0x58, 0x48, 0xd3, 0x41, 0xe6, 0x46, 0x39, 0xf1, 0x7f, 0x09, 0xd8, 0xc2, 0x4c, 0xd5, 0x67, 0x04, 0x2a, 0x62, 0xdc, 0x8d, 0x40, 0x3d, 0x98, 0x06, 0x3e, 0x8c, 0x55, 0x18, 0xb6, 0xb7, 0x05, 0xce, 0x39, 0x82, 0xa5, 0xd4, 0x23, 0x02, 0x42, 0x6f, 0xdb, 0x4c, 0x3a, 0x94, 0x81, 0x29, 0x8d, 0x1e, 0xa3, 0xff, 0xff, 0x04, 0x00, 0x00, 0x00, 0x20, 0x00, 0x00, 0x00, 0x36, 0xfd, 0xff, 0xff, 0xf2, 0xff, 0xff, 0xff, 0x14, 0xf7, 0xff, 0xff, 0xaf, 0xfe, 0xff, 0xff, 0x7c, 0xff, 0xff, 0xff, 0x8d, 0x04, 0x00, 0x00, 0xfd, 0xff, 0xff, 0xff, 0xb7, 0xfa, 0xff, 0xff, 0x4a, 0xa3, 0xff, 0xff, 0x04, 0x00, 0x00, 0x00, 0x80, 0x04, 0x00, 0x00, 0x29, 0x46, 0x33, 0xf7, 0xda, 0x03, 0x11, 0x26, 0xd0, 0x4c, 0x07, 0x33, 0x13, 0xf1, 0x46, 0xcb, 0x7f, 0x23, 0xeb, 0x35, 0x25, 0x0c, 0x46, 0xdb, 0x47, 0x47, 0x27, 0x24, 0x1c, 0x1c, 0x61, 0x00, 0x0a, 0x3c, 0x0f, 0x20, 0xe0, 0xf6, 0x02, 0x46, 0x01, 0xde, 0xe7, 0x14, 0x03, 0x03, 0x29, 0xf8, 0x14, 0xf6, 0x1c, 0xf3, 0x1d, 0x18, 0xd3, 0x27, 0xdb, 0x1d, 0x0d, 0x24, 0xbd, 0xdc, 0x0f, 0x16, 0xe8, 0xda, 0xd0, 0x07, 0xcc, 0xf5, 0xcc, 0xe9, 0x1d, 0xad, 0x50, 0xd7, 0xe3, 0x81, 0x4a, 0x2b, 0xbf, 0x0f, 0xd7, 0xfe, 0x11, 0x24, 0x34, 0x03, 0xe1, 0x8e, 0xd8, 0x08, 0x4b, 0x16, 0x6d, 0x45, 0x2e, 0x07, 0x0a, 0xc6, 0xb1, 0x3f, 0xc4, 0xa2, 0xeb, 0xa3, 0xfa, 0xf3, 0xd8, 0x28, 0x32, 0x9d, 0x37, 0xe6, 0xdc, 0x42, 0x2d, 0xdc, 0xc8, 0xce, 0x56, 0x47, 0x5a, 0x47, 0x37, 0x5b, 0x00, 0xed, 0x2e, 0x08, 0xfe, 0xe8, 0x58, 0x13, 0x7d, 0x40, 0x2a, 0x4a, 0xf1, 0x79, 0xdf, 0xbe, 0x4b, 0x3c, 0xce, 0xea, 0xe3, 0xc6, 0xae, 0xc0, 0x50, 0x2e, 0x2b, 0xcf, 0x08, 0x7f, 0xeb, 0xf4, 0x77, 0xc2, 0x12, 0x4f, 0xb0, 0xec, 0x1d, 0x8a, 0x71, 0x0d, 0xb5, 0x34, 0x2e, 0xf6, 0x5b, 0xc2, 0x83, 0xc5, 0x05, 0xc8, 0x4c, 0xf1, 0xec, 0xb0, 0x1a, 0x16, 0xe4, 0x01, 0x38, 0x0c, 0xe5, 0xf1, 0x85, 0xf0, 0xa0, 0x21, 0x2a, 0xfe, 0xcd, 0xf9, 0x1e, 0x03, 0x10, 0xcc, 0xf1, 0x3d, 0x56, 0x44, 0xf3, 0x4b, 0x4c, 0xe5, 0x24, 0xf1, 0xca, 0x2a, 0x1b, 0x26, 0xef, 0x3c, 0xd7, 0xcf, 0x15, 0x12, 0x1d, 0x32, 0xac, 0x23, 0x0c, 0xe3, 0xc0, 0x3c, 0x44, 0x28, 0xc4, 0xdb, 0xcd, 0xe2, 0x20, 0xed, 0xd1, 0xc6, 0x1f, 0x01, 0x19, 0x4d, 0xc2, 0x8d, 0x05, 0xd4, 0x7f, 0x4d, 0xda, 0x22, 0xd0, 0xe9, 0x59, 0x18, 0x18, 0x1f, 0x03, 0xa9, 0x8b, 0xaf, 0xf8, 0xd2, 0x67, 0x63, 0x14, 0x20, 0x11, 0xeb, 0x0f, 0x03, 0x3c, 0x09, 0xcd, 0x07, 0x2f, 0xe4, 0x72, 0x3a, 0x29, 0x57, 0xbc, 0x23, 0x9d, 0xf8, 0xc9, 0x05, 0x30, 0xa0, 0x4e, 0x0c, 0x08, 0x3d, 0x2b, 0xce, 0xa8, 0xb9, 0x10, 0x6a, 0xfb, 0x5f, 0x28, 0x03, 0xf7, 0x88, 0xe6, 0x10, 0x3e, 0x5d, 0xf9, 0x43, 0x3a, 0xc8, 0xb8, 0x3e, 0xa5, 0x52, 0x1e, 0xa9, 0x34, 0xf5, 0xe5, 0x2a, 0xb3, 0xf2, 0x34, 0xe5, 0xf4, 0x10, 0x31, 0x55, 0x0a, 0xf1, 0x09, 0xf2, 0xd1, 0x0d, 0xf0, 0x7d, 0xb0, 0x0a, 0x16, 0xc4, 0xc6, 0xe5, 0xdf, 0xb7, 0xe3, 0x2e, 0xe4, 0xf6, 0xfc, 0xc9, 0xd0, 0xec, 0xd7, 0x7f, 0x5d, 0x1a, 0xd3, 0x15, 0xe8, 0x04, 0x15, 0x16, 0x0b, 0x17, 0xde, 0xec, 0xc9, 0xe3, 0x17, 0xfc, 0xf3, 0xcd, 0xd4, 0xfe, 0x25, 0xf7, 0xf4, 0x17, 0x1c, 0xfa, 0xcb, 0x28, 0x15, 0x2d, 0xe6, 0xc6, 0x39, 0xf4, 0xf7, 0x3e, 0xd8, 0xf9, 0xdf, 0xf6, 0xef, 0xce, 0x0a, 0x27, 0xf2, 0xdc, 0xe0, 0xc0, 0x81, 0xef, 0xd8, 0xdb, 0x39, 0xb5, 0x1f, 0x0f, 0x21, 0xf3, 0xc1, 0xf8, 0x19, 0xec, 0xfa, 0x18, 0x05, 0x1f, 0x05, 0x44, 0x28, 0x1d, 0x2a, 0x03, 0xe2, 0x24, 0x34, 0xc9, 0xca, 0xd9, 0x25, 0xf1, 0xeb, 0x31, 0x6a, 0x04, 0x3a, 0x22, 0x2e, 0xf6, 0x34, 0x30, 0x66, 0xfb, 0x47, 0x36, 0x36, 0x06, 0x03, 0x46, 0xd9, 0xd0, 0xcc, 0xe2, 0x08, 0xe4, 0xa7, 0xe6, 0x13, 0x17, 0x2d, 0x25, 0x45, 0x0a, 0xdb, 0x0f, 0x81, 0xfd, 0x0f, 0x28, 0xf2, 0xf6, 0xb4, 0x01, 0x04, 0xe5, 0xf0, 0xea, 0xcf, 0x5f, 0x01, 0x03, 0x0a, 0x19, 0xee, 0x22, 0xca, 0x3a, 0xcc, 0x22, 0xe0, 0x2c, 0x30, 0xc2, 0xd7, 0x48, 0x38, 0x2b, 0xe1, 0x32, 0xaf, 0x27, 0xae, 0xe8, 0x69, 0xed, 0xd2, 0xfd, 0x03, 0xf3, 0xe8, 0xd3, 0x13, 0xb4, 0xb6, 0xfd, 0xb0, 0x45, 0xdc, 0xda, 0x2e, 0x32, 0xb2, 0x5a, 0xb9, 0x44, 0xfb, 0xe2, 0x8c, 0xcc, 0xf1, 0x0f, 0xc8, 0x16, 0xf9, 0xfa, 0xe7, 0xe7, 0x39, 0x21, 0xf9, 0xc0, 0xfe, 0x2c, 0xb7, 0xd7, 0x4c, 0x09, 0x01, 0xdb, 0x57, 0x9d, 0x7f, 0x4a, 0xd7, 0x5d, 0x50, 0x41, 0xcf, 0xb5, 0xe2, 0xeb, 0x4b, 0x5e, 0x4b, 0x36, 0x33, 0x29, 0x02, 0x2f, 0x0e, 0xe1, 0xdb, 0xd1, 0xbb, 0x07, 0xfa, 0x15, 0x81, 0xe8, 0xc9, 0x25, 0xc0, 0x13, 0x4a, 0x05, 0xcc, 0x2c, 0xdf, 0x20, 0xfd, 0x1c, 0xe6, 0xee, 0xb0, 0xdb, 0xe1, 0x2b, 0x07, 0x1c, 0xf8, 0xf9, 0xcc, 0x0f, 0x03, 0xdc, 0x07, 0x1d, 0xe4, 0xe2, 0x97, 0x4e, 0x15, 0xf2, 0x00, 0xb7, 0x02, 0xb7, 0xc3, 0xd3, 0xe7, 0x1a, 0x22, 0xcc, 0xef, 0x12, 0xd3, 0xe2, 0xda, 0x13, 0x52, 0x06, 0x11, 0x2d, 0x16, 0x17, 0x42, 0x1a, 0x25, 0x1c, 0x3b, 0xd3, 0x6c, 0xea, 0x0a, 0x84, 0x72, 0xe2, 0xb7, 0x61, 0x53, 0x58, 0x6b, 0x1e, 0xfe, 0x29, 0xc2, 0xc1, 0x64, 0xc4, 0x11, 0xd2, 0xe1, 0x95, 0x3f, 0xcd, 0x14, 0x96, 0xdb, 0xe7, 0x52, 0x07, 0xe2, 0x16, 0x37, 0x8c, 0x1f, 0x23, 0x36, 0x33, 0x0f, 0x58, 0xc7, 0xf2, 0x54, 0x3a, 0x1d, 0x0b, 0x09, 0x4b, 0x47, 0xae, 0xa7, 0xbb, 0x50, 0x2f, 0xe9, 0xcd, 0x7f, 0x57, 0xa7, 0xc0, 0x07, 0x22, 0xfe, 0x9c, 0x07, 0xfe, 0x59, 0xdf, 0x3d, 0x53, 0x84, 0xe7, 0xc8, 0x3e, 0x14, 0x11, 0x40, 0x38, 0x0e, 0x52, 0x3f, 0x61, 0x06, 0xae, 0xbd, 0x5c, 0x0d, 0x00, 0xb4, 0xe6, 0xa1, 0x95, 0xa1, 0x69, 0xa8, 0xb5, 0x1e, 0xa3, 0x16, 0x38, 0xfd, 0x08, 0x1c, 0x33, 0xc4, 0xda, 0x07, 0x81, 0x1c, 0x24, 0x69, 0x14, 0x20, 0x6a, 0xea, 0xcc, 0xe0, 0x65, 0x03, 0xdd, 0x52, 0x8d, 0xa2, 0x32, 0xe0, 0x29, 0x60, 0xd9, 0xe8, 0x1d, 0x68, 0xf5, 0xf4, 0x27, 0x4d, 0xb4, 0x27, 0x14, 0x76, 0x0d, 0x4a, 0x41, 0xc9, 0xe1, 0x0b, 0x25, 0x14, 0x18, 0x20, 0xfe, 0x34, 0x23, 0x40, 0x1d, 0x21, 0x01, 0xe0, 0x1e, 0x55, 0x03, 0x7f, 0x1e, 0x09, 0x1b, 0xe6, 0xe9, 0x55, 0xda, 0x63, 0xe2, 0x27, 0xf6, 0x2e, 0xe5, 0x29, 0x1c, 0xdc, 0x34, 0xfd, 0x0c, 0xd3, 0x14, 0x0d, 0xdb, 0xef, 0xed, 0xde, 0x33, 0x12, 0x07, 0xde, 0xe6, 0xe4, 0xf0, 0x03, 0xea, 0x23, 0x2c, 0x20, 0x2e, 0xe2, 0xe1, 0x0a, 0x31, 0x2c, 0x21, 0xf1, 0x1f, 0xcc, 0x14, 0xdc, 0xff, 0xe4, 0x3f, 0xfa, 0xe2, 0x06, 0x0c, 0x5e, 0xc7, 0x51, 0x46, 0x59, 0x22, 0xed, 0x22, 0xd1, 0x89, 0xfc, 0xc9, 0xd4, 0x06, 0x20, 0xd4, 0xd1, 0xeb, 0xa0, 0x7f, 0xad, 0xe9, 0xde, 0xeb, 0x0e, 0x1e, 0x2b, 0xc3, 0x32, 0x51, 0x25, 0x29, 0x37, 0xcb, 0x13, 0x03, 0x20, 0x49, 0xaf, 0x58, 0xc2, 0x0d, 0xbe, 0x0a, 0x2b, 0x1c, 0x5b, 0xa5, 0x10, 0x04, 0x40, 0xf0, 0xcf, 0xe8, 0xed, 0xc4, 0xff, 0xdb, 0xe8, 0x1d, 0x35, 0xc6, 0xef, 0xc4, 0x34, 0xe3, 0xdf, 0xe2, 0xd6, 0xf2, 0xd8, 0x4f, 0xac, 0x26, 0x27, 0xca, 0xf9, 0x12, 0x01, 0x3f, 0xb7, 0x16, 0x23, 0x2b, 0xb0, 0xe6, 0xbe, 0x43, 0xb9, 0x3f, 0xee, 0x0b, 0x33, 0xa3, 0x88, 0x07, 0x17, 0x03, 0x31, 0x05, 0xcc, 0x54, 0x16, 0xa9, 0x08, 0x61, 0x1c, 0xf5, 0x6b, 0x44, 0xf6, 0x0b, 0xe7, 0x1a, 0x72, 0x59, 0x7f, 0xf9, 0x10, 0xa2, 0x33, 0x2c, 0xfa, 0x01, 0x0e, 0xfd, 0x2c, 0x97, 0xd5, 0x0c, 0x42, 0xf6, 0x47, 0x46, 0xaf, 0xf9, 0x35, 0x4a, 0x43, 0xa9, 0x2e, 0xe4, 0xf4, 0x04, 0x32, 0x18, 0x57, 0xf1, 0x20, 0x2c, 0xd1, 0x0c, 0x1e, 0xb8, 0x53, 0x32, 0x23, 0x1d, 0xd5, 0xf4, 0xee, 0xb7, 0x26, 0xf6, 0x0a, 0x49, 0xd1, 0xcd, 0x30, 0xfb, 0x1e, 0xef, 0x07, 0xd2, 0xc0, 0xef, 0x4d, 0x33, 0xc8, 0x12, 0xb2, 0xdd, 0xd8, 0xe0, 0x2a, 0xaa, 0xd9, 0xd0, 0xe5, 0x3f, 0xcc, 0xd7, 0xbf, 0x08, 0xb5, 0x36, 0xce, 0xce, 0x2d, 0x81, 0xc9, 0x0a, 0x25, 0x64, 0xf8, 0x2f, 0xfe, 0xd0, 0xfb, 0xc3, 0xb3, 0x58, 0xb6, 0xd5, 0xd2, 0x57, 0x0d, 0x02, 0x3c, 0xba, 0xfc, 0x1c, 0x1f, 0x15, 0x08, 0x17, 0xcc, 0xda, 0x1f, 0xb9, 0xa9, 0x57, 0x3e, 0x0f, 0x2b, 0x81, 0x31, 0x0a, 0xfa, 0x17, 0x30, 0xf6, 0xe4, 0x30, 0xcb, 0x49, 0xed, 0x38, 0x5b, 0x44, 0xdb, 0xf6, 0xa7, 0xf6, 0x3e, 0xe0, 0x16, 0x38, 0x2e, 0x07, 0xb0, 0x25, 0xee, 0x28, 0xd9, 0x27, 0xe5, 0x31, 0x1f, 0x33, 0x43, 0x1a, 0x0c, 0xe5, 0x44, 0xf4, 0x21, 0x31, 0x27, 0x2f, 0x43, 0xd4, 0xb9, 0x0c, 0x15, 0xd6, 0xd6, 0xa7, 0xff, 0xff, 0x04, 0x00, 0x00, 0x00, 0x40, 0x00, 0x00, 0x00, 0x8f, 0xf6, 0xff, 0xff, 0x93, 0x11, 0x00, 0x00, 0x61, 0xf8, 0xff, 0xff, 0xf3, 0x03, 0x00, 0x00, 0x52, 0x0c, 0x00, 0x00, 0x22, 0xff, 0xff, 0xff, 0x00, 0xfc, 0xff, 0xff, 0x31, 0x01, 0x00, 0x00, 0x70, 0x10, 0x00, 0x00, 0xef, 0xf8, 0xff, 0xff, 0x46, 0xfd, 0xff, 0xff, 0xba, 0x01, 0x00, 0x00, 0x55, 0xf1, 0xff, 0xff, 0x08, 0x03, 0x00, 0x00, 0x81, 0xf7, 0xff, 0xff, 0x5c, 0xee, 0xff, 0xff, 0x22, 0xa8, 0xff, 0xff, 0x04, 0x00, 0x00, 0x00, 0x00, 0x12, 0x00, 0x00, 0x1e, 0x0b, 0x11, 0xdc, 0xc7, 0x0e, 0x33, 0xdc, 0xc9, 0xdb, 0xc2, 0x51, 0xf5, 0x1e, 0x43, 0xec, 0x16, 0x12, 0xf5, 0x0e, 0x12, 0xa1, 0x25, 0x94, 0xd0, 0x31, 0x04, 0x10, 0xb1, 0xfc, 0x07, 0x16, 0xf2, 0xb6, 0x01, 0xe1, 0xd7, 0xf8, 0x2f, 0xaa, 0xb5, 0x4a, 0x29, 0xd0, 0xe1, 0x3d, 0xf8, 0xec, 0xd3, 0x1d, 0x36, 0xf5, 0x8b, 0x32, 0xcf, 0xf8, 0xd6, 0x38, 0xdb, 0xcf, 0x1c, 0x1d, 0x1a, 0xd6, 0x43, 0x38, 0x14, 0x2f, 0xd6, 0x0c, 0x20, 0xdb, 0x47, 0x02, 0xe2, 0x07, 0xe3, 0x29, 0xad, 0xbb, 0x00, 0x14, 0x35, 0xbb, 0xdc, 0x44, 0xe4, 0xbf, 0x22, 0xd3, 0xe0, 0x23, 0x9b, 0xe2, 0x81, 0xdc, 0x03, 0xdf, 0x21, 0xd6, 0xd2, 0xe1, 0xed, 0xcb, 0xcd, 0x2f, 0xaa, 0xd9, 0xd4, 0x30, 0xa8, 0x35, 0x23, 0xf5, 0xf9, 0x21, 0xd0, 0xd1, 0x3b, 0xc7, 0xa1, 0x15, 0xd1, 0x2b, 0x0a, 0x20, 0xf2, 0xcb, 0xc1, 0xc6, 0xad, 0xcd, 0x25, 0xbc, 0xe4, 0xe7, 0x9f, 0xf3, 0x1c, 0xb7, 0xfb, 0x03, 0x2b, 0x19, 0x35, 0xee, 0xb7, 0x20, 0xf5, 0xce, 0xf0, 0xfa, 0xdc, 0xfb, 0xf8, 0x1b, 0xed, 0xe4, 0xcd, 0xcd, 0xf6, 0xde, 0xc3, 0x2a, 0x9f, 0x12, 0x2e, 0x81, 0xf1, 0x54, 0x85, 0xfd, 0xa6, 0xc1, 0x46, 0x35, 0xb6, 0x3f, 0x09, 0x0a, 0x25, 0xfa, 0x66, 0xa4, 0xdf, 0x5d, 0x87, 0x16, 0xcf, 0x34, 0x10, 0x17, 0x05, 0x9d, 0x3c, 0xdf, 0xe5, 0xb4, 0x0f, 0xe5, 0xb9, 0x15, 0xd1, 0x49, 0x09, 0xd0, 0xed, 0x38, 0xd5, 0xd1, 0x45, 0xdf, 0xe0, 0x10, 0xe8, 0xce, 0xda, 0xd4, 0x21, 0x01, 0xb2, 0xdf, 0xb0, 0x35, 0x0a, 0xd7, 0xd7, 0xdf, 0x91, 0x23, 0xdd, 0xf5, 0x11, 0xe8, 0x07, 0x11, 0x3e, 0x12, 0xf7, 0x19, 0xe6, 0x07, 0x2e, 0x18, 0x92, 0xcf, 0xc6, 0xb7, 0xd4, 0xcf, 0xc2, 0x2a, 0xd0, 0x15, 0xa0, 0xdd, 0x21, 0xd8, 0xf0, 0x9a, 0x00, 0x1a, 0x0b, 0xab, 0xab, 0x23, 0x01, 0xc1, 0x02, 0x2a, 0x1b, 0x02, 0x22, 0x0f, 0xf9, 0xaa, 0xc0, 0x14, 0xf3, 0xaf, 0xf0, 0xc7, 0x54, 0xd4, 0x55, 0xd3, 0x20, 0x1d, 0x07, 0xa0, 0xe9, 0xdc, 0x10, 0xe9, 0x88, 0xe4, 0x7f, 0xc5, 0xfb, 0x38, 0x05, 0xcb, 0xeb, 0x9d, 0xff, 0xb4, 0xeb, 0xdb, 0x1a, 0x38, 0xbb, 0x68, 0x58, 0xe0, 0xe4, 0x03, 0xdd, 0x09, 0xd1, 0x00, 0xc3, 0x2e, 0x33, 0xda, 0xcd, 0x0f, 0xdc, 0x58, 0x57, 0xfe, 0xd7, 0xc5, 0xbd, 0x39, 0xc2, 0xcf, 0xe3, 0x20, 0xe9, 0xe7, 0x0a, 0xef, 0xb7, 0xca, 0x62, 0x0f, 0x33, 0x85, 0xa4, 0xd1, 0xc1, 0xa9, 0xc0, 0xf2, 0x08, 0xd8, 0xc5, 0xcf, 0xed, 0xdb, 0x3b, 0x34, 0x04, 0xff, 0xee, 0x0d, 0xf7, 0x07, 0xfc, 0xd1, 0x17, 0xee, 0x40, 0x4f, 0x1d, 0x5f, 0x61, 0x39, 0x2b, 0x18, 0xe6, 0x13, 0x16, 0x1d, 0x07, 0x3f, 0xad, 0xef, 0xf9, 0x2b, 0xad, 0x45, 0x0e, 0xb4, 0x5b, 0xca, 0xba, 0xd3, 0xbb, 0x26, 0xe5, 0x0d, 0x3d, 0x42, 0xed, 0xde, 0x0e, 0x47, 0x33, 0x3d, 0xea, 0x0d, 0xc2, 0xfe, 0xd3, 0x18, 0x50, 0x43, 0x12, 0xbf, 0xe5, 0x1f, 0x59, 0xfe, 0x29, 0x06, 0xad, 0xea, 0x01, 0x00, 0xdb, 0x42, 0x1a, 0x26, 0x28, 0xf5, 0x0b, 0x39, 0x25, 0x27, 0xb6, 0xfb, 0xf5, 0x47, 0x48, 0xf4, 0xce, 0x23, 0xd9, 0xd7, 0x2f, 0x1d, 0xdb, 0xee, 0xde, 0x3e, 0x0d, 0x10, 0x36, 0x2d, 0x13, 0xd2, 0x19, 0xfd, 0xf1, 0x46, 0xdc, 0xd6, 0x34, 0x24, 0xf8, 0x12, 0xd4, 0xb5, 0xee, 0x15, 0x91, 0x01, 0xbd, 0xe2, 0x48, 0xd2, 0xd8, 0x09, 0x4f, 0xbd, 0x07, 0xfd, 0x1f, 0x46, 0x3b, 0xe7, 0x7f, 0x4d, 0x5f, 0x11, 0x3f, 0xeb, 0x1c, 0xaa, 0xfd, 0xc9, 0xee, 0xf5, 0x9c, 0xe8, 0x64, 0x30, 0xce, 0x12, 0x01, 0x07, 0xbd, 0x34, 0x02, 0xc1, 0x45, 0xfd, 0xef, 0x00, 0x1a, 0x26, 0x4f, 0xe9, 0xac, 0x18, 0x15, 0xf6, 0xc4, 0x10, 0xd0, 0xe4, 0xe4, 0x15, 0xe0, 0xc1, 0xc3, 0xe8, 0xae, 0xd6, 0xc0, 0xff, 0x1e, 0xbc, 0xd6, 0xda, 0xe0, 0xad, 0x5b, 0xe6, 0xea, 0xd8, 0xe1, 0xec, 0xef, 0xd9, 0x0a, 0xbe, 0xf0, 0xd2, 0x27, 0x05, 0xfd, 0xee, 0xf5, 0xd8, 0x02, 0xf2, 0x0c, 0x09, 0xc9, 0x1a, 0xc7, 0x37, 0x3c, 0x38, 0x14, 0x2e, 0xcd, 0x3b, 0x0f, 0x19, 0x42, 0x40, 0xf3, 0x30, 0xc7, 0xdc, 0xa1, 0xdc, 0xf8, 0xfb, 0xed, 0x0a, 0xea, 0xe4, 0x52, 0xe3, 0xfa, 0x18, 0x3e, 0x29, 0x3f, 0x36, 0x37, 0x00, 0x24, 0xcd, 0xc1, 0x22, 0xd6, 0xce, 0xe4, 0xfc, 0xf2, 0x06, 0x49, 0x2a, 0x2a, 0x06, 0xf0, 0x0a, 0x1e, 0xd8, 0x26, 0x22, 0xe7, 0x10, 0x49, 0x3e, 0x2c, 0x22, 0xe5, 0xe4, 0xfd, 0xfc, 0x09, 0xe9, 0xcb, 0x13, 0xdc, 0xfc, 0xfb, 0x1f, 0x1f, 0xef, 0xe2, 0xe9, 0x39, 0x11, 0xef, 0xbb, 0x10, 0x00, 0xdb, 0xc9, 0xf2, 0xe2, 0xfa, 0xce, 0x2b, 0xb7, 0x05, 0x81, 0xea, 0xed, 0xcb, 0xc6, 0xf3, 0xe8, 0x0a, 0xf3, 0x41, 0xf4, 0xde, 0x1d, 0x32, 0xd6, 0x0e, 0x1c, 0x12, 0xe9, 0x2c, 0x1d, 0x20, 0xc3, 0x1e, 0x0b, 0xb8, 0x2f, 0xc9, 0x0a, 0x0e, 0xd8, 0xf3, 0xec, 0x10, 0xe1, 0xe3, 0xc0, 0xd9, 0xc9, 0xce, 0xc8, 0xe3, 0x19, 0xed, 0xbb, 0x1a, 0xc3, 0xe3, 0xc3, 0x18, 0xd5, 0xdd, 0xd9, 0xfb, 0xdb, 0xca, 0xf1, 0x00, 0x33, 0xb8, 0xe0, 0xda, 0x0b, 0xdf, 0x12, 0x32, 0xd2, 0x1b, 0xf5, 0xf7, 0xfe, 0xfc, 0xe1, 0x05, 0x1b, 0x16, 0x50, 0x9b, 0x28, 0xd8, 0xf2, 0xf5, 0xdd, 0xf1, 0x31, 0xbd, 0x30, 0xdf, 0xfc, 0x98, 0x03, 0x0a, 0xb2, 0xce, 0xff, 0x4c, 0xb8, 0xe3, 0x24, 0xfb, 0xd1, 0xbd, 0xf8, 0xcd, 0xdf, 0xc2, 0x2d, 0x4a, 0x98, 0xd3, 0x10, 0x17, 0xf8, 0xf0, 0xfe, 0xe0, 0x39, 0xb9, 0xdb, 0xeb, 0xd0, 0x6c, 0x45, 0x3a, 0x09, 0x20, 0xe2, 0xff, 0xf2, 0xe9, 0x13, 0xc9, 0x2d, 0x14, 0x3c, 0xb7, 0x3f, 0xde, 0xb6, 0x3a, 0xb9, 0xf3, 0xd2, 0x3b, 0xd3, 0xe3, 0xfa, 0x9c, 0xfb, 0xbf, 0x12, 0xd9, 0x0c, 0x06, 0xb0, 0xdc, 0x06, 0xed, 0xb9, 0xf8, 0x8f, 0xfb, 0x01, 0xf3, 0x1c, 0x27, 0xe1, 0xfc, 0x05, 0x3f, 0xf3, 0xc4, 0x7f, 0x24, 0x00, 0xd5, 0xfc, 0xa1, 0xc7, 0xa5, 0x4d, 0x1b, 0xe7, 0xa7, 0xdd, 0xa0, 0x18, 0xca, 0x2d, 0x60, 0xde, 0xf2, 0xbd, 0x26, 0x09, 0x2e, 0x3a, 0xa1, 0xfe, 0xa1, 0x1b, 0xe7, 0xe2, 0xfe, 0x9e, 0xf8, 0xd8, 0x2d, 0xb7, 0xdd, 0x47, 0xf1, 0xf1, 0x91, 0x48, 0xdb, 0x46, 0xfe, 0xdc, 0x2c, 0xfc, 0xc9, 0xf8, 0x2a, 0x81, 0xfc, 0xed, 0x9b, 0x05, 0xe9, 0x3a, 0xc4, 0xea, 0xf2, 0xcd, 0xc2, 0x0b, 0x0f, 0xee, 0xf5, 0xb1, 0x13, 0x1d, 0x32, 0x28, 0x09, 0xf3, 0x23, 0xeb, 0xdc, 0xef, 0xfb, 0x8a, 0xb6, 0x49, 0x01, 0xd0, 0xc7, 0xd5, 0x0c, 0x3f, 0xbc, 0x2f, 0xd6, 0x38, 0xe2, 0x32, 0xf3, 0x2b, 0xc9, 0x38, 0x1f, 0xf8, 0x38, 0xc2, 0xe8, 0xff, 0xe9, 0x03, 0xea, 0x08, 0xf5, 0x1e, 0xf9, 0xcd, 0x0c, 0x11, 0x18, 0xc3, 0xff, 0xf8, 0xdf, 0x29, 0xb6, 0xe2, 0xac, 0x2b, 0xe2, 0xca, 0x0b, 0xe1, 0xee, 0x1a, 0x1e, 0xf0, 0x16, 0x0f, 0xd4, 0x24, 0xd2, 0xdf, 0xd9, 0xe0, 0xee, 0x1c, 0x1e, 0xe7, 0xdb, 0xeb, 0x36, 0xb4, 0xf6, 0x32, 0x0a, 0xed, 0xc1, 0xcc, 0x0d, 0xf6, 0x18, 0x0f, 0xf7, 0x02, 0x03, 0xf9, 0xcf, 0x0e, 0xda, 0xf7, 0xcb, 0x2a, 0xd2, 0xe8, 0xd0, 0xf9, 0xdb, 0x1a, 0xef, 0x06, 0x2f, 0xb3, 0x0d, 0xf1, 0xc9, 0xd7, 0xcf, 0xc0, 0xbf, 0xd5, 0x3e, 0x00, 0xda, 0x01, 0x06, 0x07, 0x3c, 0xc6, 0x10, 0xd5, 0x24, 0x22, 0x7f, 0xe5, 0x64, 0x1f, 0x25, 0xe1, 0xef, 0x40, 0xf8, 0xda, 0xf9, 0x33, 0xd1, 0x40, 0xf4, 0xfd, 0x66, 0x27, 0x16, 0xff, 0x0b, 0x1b, 0x29, 0x29, 0x15, 0x32, 0x05, 0x2f, 0x01, 0x63, 0x02, 0xc6, 0x10, 0xdf, 0x1a, 0xdb, 0xd8, 0xdd, 0xdc, 0x1c, 0x0d, 0x13, 0x28, 0x03, 0xdc, 0x35, 0xc1, 0xf5, 0xf9, 0xd1, 0xdc, 0xe2, 0xee, 0x1c, 0x1d, 0xcf, 0x31, 0xc7, 0x15, 0xdf, 0x15, 0xc5, 0xd7, 0x26, 0xea, 0x15, 0xef, 0x0a, 0x41, 0x0b, 0x0e, 0x04, 0x0d, 0x40, 0xd0, 0xef, 0x11, 0x13, 0xd3, 0xd4, 0x1f, 0x3d, 0x0f, 0x15, 0xfe, 0x06, 0x1a, 0xd6, 0x18, 0x05, 0xeb, 0xd3, 0xd2, 0xe9, 0x03, 0x06, 0x08, 0xd6, 0x0b, 0xf7, 0xe5, 0xdf, 0xcc, 0xee, 0xed, 0xc5, 0xfa, 0xea, 0x24, 0xf1, 0xe3, 0xeb, 0xc9, 0x03, 0xfd, 0x17, 0xfc, 0xe5, 0xd5, 0x03, 0xb4, 0xf8, 0xfc, 0x21, 0x09, 0x09, 0xfe, 0x11, 0xff, 0x00, 0xd1, 0xe5, 0xe4, 0x8d, 0x3e, 0x25, 0x22, 0x17, 0xf5, 0x29, 0x23, 0xa6, 0xde, 0x37, 0x17, 0x92, 0x28, 0x11, 0x18, 0x3e, 0xf7, 0xd5, 0x23, 0x9a, 0x3d, 0xf5, 0x8c, 0x16, 0x12, 0xff, 0x41, 0xeb, 0x98, 0xdb, 0x99, 0xe6, 0xb6, 0xa9, 0xe5, 0x41, 0xcd, 0x12, 0x3b, 0xc1, 0xbb, 0xa9, 0x34, 0x4d, 0x0a, 0x53, 0x1b, 0x91, 0x34, 0x98, 0x1f, 0xc6, 0x96, 0x26, 0x91, 0x28, 0xe3, 0x31, 0x22, 0x95, 0xb0, 0xda, 0x3f, 0xc2, 0x49, 0xff, 0x2a, 0xb7, 0x5e, 0x4e, 0x9c, 0xe4, 0x96, 0xab, 0xf5, 0x1c, 0x94, 0xa7, 0x90, 0xf9, 0xc6, 0x31, 0xb0, 0x9f, 0xcb, 0x4c, 0xea, 0x9d, 0x81, 0xa1, 0xc6, 0xb9, 0xc6, 0xeb, 0xe2, 0x2a, 0xf2, 0x37, 0xa7, 0x4e, 0xe8, 0x3c, 0xf2, 0x98, 0x9b, 0xf7, 0x39, 0xb6, 0xbc, 0x97, 0xf2, 0xe0, 0x3a, 0xf1, 0xc4, 0xb9, 0xfd, 0x9d, 0x0b, 0xb1, 0xfe, 0xf7, 0xa4, 0xad, 0xa9, 0x47, 0xaf, 0xe0, 0x25, 0xe9, 0x2c, 0x06, 0xc5, 0x29, 0xdb, 0xe4, 0xa8, 0x0f, 0xe0, 0x18, 0xed, 0x1b, 0xe2, 0x41, 0x14, 0x13, 0xfe, 0xf8, 0x36, 0x10, 0xe5, 0xe1, 0xce, 0x1e, 0x35, 0x2c, 0xec, 0x19, 0xdd, 0x01, 0xe8, 0xde, 0xd3, 0x29, 0x26, 0xfe, 0x13, 0x1f, 0xbb, 0x1b, 0x0c, 0x0a, 0x12, 0x20, 0x02, 0x06, 0xf2, 0x13, 0xf3, 0x02, 0xef, 0x13, 0xf1, 0xe9, 0x16, 0x06, 0x29, 0x0b, 0xef, 0x30, 0x0a, 0x18, 0xee, 0x0e, 0x17, 0xd5, 0x35, 0xe4, 0x25, 0x1e, 0xc4, 0xee, 0x0f, 0x16, 0x23, 0x36, 0xca, 0x08, 0x1b, 0x2a, 0x15, 0xd5, 0xde, 0x21, 0xf1, 0xf6, 0xcc, 0xe3, 0x22, 0x25, 0x03, 0xed, 0xda, 0x05, 0xfa, 0xde, 0x0e, 0xd4, 0xf1, 0xf6, 0xf9, 0x81, 0xef, 0xf0, 0xc5, 0x14, 0x01, 0xdb, 0xa0, 0x08, 0xdb, 0x01, 0xf3, 0xc6, 0x14, 0x32, 0xf1, 0x95, 0xcd, 0xda, 0xcd, 0x21, 0x16, 0x31, 0xb1, 0x1e, 0x22, 0x17, 0xe7, 0xda, 0xf9, 0x0f, 0xee, 0xfb, 0xd8, 0x0e, 0x0d, 0xfa, 0x0e, 0xe0, 0xfc, 0x1d, 0x16, 0xef, 0x03, 0xe2, 0x1b, 0xe6, 0x19, 0x04, 0xbb, 0x1b, 0x0a, 0x31, 0x54, 0xd3, 0x5e, 0x17, 0x37, 0x35, 0xb1, 0x23, 0x0d, 0xe1, 0xdd, 0xd5, 0x2d, 0xfc, 0x27, 0x2c, 0x02, 0xcb, 0x2e, 0xea, 0xb3, 0x27, 0xfb, 0x03, 0x36, 0x14, 0x02, 0x1a, 0x48, 0x04, 0xfd, 0xb9, 0xfa, 0xf3, 0xac, 0x00, 0x20, 0xd4, 0xec, 0x0f, 0x0b, 0xe2, 0xda, 0x04, 0xe9, 0xee, 0x33, 0x36, 0x27, 0xe0, 0x3a, 0xea, 0xf0, 0x06, 0xee, 0x36, 0x31, 0x13, 0xf1, 0xe7, 0x02, 0xe1, 0x08, 0xf2, 0xda, 0x21, 0xba, 0xd2, 0xe2, 0x00, 0x30, 0xd6, 0x01, 0x29, 0xf5, 0xec, 0x04, 0x0b, 0x01, 0xd4, 0xe7, 0xfb, 0xd3, 0x19, 0xff, 0xe5, 0xca, 0x11, 0x5b, 0xe5, 0xbf, 0xf2, 0xcf, 0xd2, 0x81, 0xf2, 0x04, 0xda, 0xd3, 0xd3, 0xfd, 0xdc, 0xfd, 0xed, 0x36, 0xe9, 0xf0, 0xc6, 0xf0, 0xef, 0x10, 0x0e, 0x06, 0x0e, 0xfd, 0x0f, 0xcd, 0x1d, 0x10, 0x02, 0x33, 0xf7, 0x3b, 0x02, 0x2b, 0x3a, 0x31, 0xda, 0xfb, 0x20, 0x42, 0xdd, 0x2f, 0xe9, 0xbb, 0x06, 0xf5, 0xc6, 0xf3, 0x53, 0xbd, 0x27, 0x17, 0xd3, 0x06, 0xd5, 0xa9, 0xf0, 0xd4, 0x02, 0x0e, 0xad, 0x43, 0x02, 0x39, 0x29, 0x1e, 0x2f, 0x27, 0xe6, 0xdc, 0x2b, 0x1d, 0x1d, 0x33, 0x0b, 0x17, 0xb1, 0xd5, 0x14, 0xd3, 0xd6, 0xf0, 0x54, 0xfd, 0xd2, 0xe5, 0xf8, 0xc8, 0x41, 0x9c, 0x1e, 0x07, 0x41, 0xf6, 0xc4, 0xd0, 0xe5, 0x12, 0x60, 0xff, 0xdd, 0x03, 0x44, 0xb1, 0x36, 0xf2, 0x20, 0xf8, 0xf3, 0x2e, 0xdc, 0x3c, 0x39, 0x3a, 0xa4, 0x38, 0x1a, 0xdc, 0x51, 0xc4, 0x42, 0x01, 0xc8, 0x2d, 0xa5, 0x22, 0x1b, 0x04, 0xc7, 0x89, 0x0b, 0x14, 0x1d, 0xd8, 0x49, 0x11, 0xce, 0xe1, 0x2e, 0x12, 0x1a, 0x2b, 0xb8, 0xfa, 0x14, 0xce, 0x37, 0xee, 0xdb, 0xa1, 0xd9, 0x91, 0x40, 0x08, 0xf3, 0xe9, 0xd2, 0x1d, 0x19, 0xe8, 0x81, 0xd5, 0x3e, 0xa2, 0xbc, 0x0e, 0xf0, 0xde, 0x2d, 0xd4, 0x1e, 0xf9, 0x4b, 0x23, 0x24, 0x19, 0xc6, 0x17, 0x51, 0x7b, 0x13, 0x5f, 0xfb, 0xdc, 0x1b, 0xd3, 0xea, 0xd6, 0x10, 0x39, 0xdc, 0x23, 0x09, 0x3e, 0xcb, 0xf5, 0xcc, 0xfd, 0xd8, 0xf8, 0xc5, 0xcd, 0x1d, 0x0f, 0xf9, 0xfb, 0xe5, 0xf2, 0x03, 0x23, 0x1a, 0x06, 0xf1, 0xf8, 0xee, 0x2a, 0xd9, 0xfc, 0xfe, 0xe8, 0xf0, 0x2a, 0xd7, 0x0c, 0xfb, 0x2b, 0xf2, 0xeb, 0xff, 0xfe, 0x1d, 0x03, 0xd7, 0xe9, 0x23, 0x03, 0x12, 0x3d, 0x1a, 0xe1, 0x21, 0xff, 0x1a, 0x19, 0xc1, 0xbe, 0xdd, 0xa2, 0xfe, 0xe9, 0xeb, 0xdb, 0x23, 0xa6, 0xfc, 0xdd, 0x37, 0x2f, 0xd5, 0x35, 0xf3, 0xb5, 0x18, 0xd9, 0x00, 0xe5, 0x30, 0xfd, 0xeb, 0xeb, 0xf6, 0x23, 0x2d, 0x6b, 0x1a, 0x09, 0x0f, 0xf2, 0x25, 0xa5, 0xf5, 0x16, 0x28, 0x2f, 0xff, 0x17, 0x3a, 0xd3, 0x18, 0x12, 0xf6, 0x08, 0x18, 0xbb, 0xf5, 0x81, 0xe9, 0x15, 0x1e, 0xf3, 0x0c, 0xa9, 0x35, 0xfe, 0x10, 0xf7, 0x07, 0x1b, 0xf5, 0xbd, 0x3a, 0xbb, 0x24, 0xee, 0xfb, 0x2f, 0x26, 0x22, 0x08, 0x1a, 0x2f, 0x2b, 0x37, 0xfc, 0x07, 0xef, 0x3e, 0xfe, 0x1b, 0xc9, 0xda, 0xfc, 0x32, 0xeb, 0x03, 0xb2, 0x34, 0xa0, 0x17, 0xcd, 0xdf, 0x48, 0x32, 0xb5, 0x0e, 0x3e, 0x19, 0x32, 0xd5, 0x20, 0xb9, 0xe0, 0xfd, 0xee, 0xa0, 0xba, 0xc3, 0x35, 0x1f, 0xd5, 0x06, 0xfd, 0x13, 0xa0, 0xad, 0x24, 0xbd, 0xda, 0xf6, 0xd0, 0xf1, 0x32, 0xff, 0x31, 0xe5, 0xa4, 0xc1, 0x1f, 0xed, 0xd0, 0xfa, 0x0e, 0xe5, 0xbf, 0xac, 0x26, 0x05, 0x02, 0x06, 0xc2, 0xc2, 0x12, 0x9e, 0xcc, 0x04, 0xfe, 0xa8, 0x38, 0xdc, 0xab, 0xce, 0x07, 0x17, 0xc6, 0x96, 0x05, 0xd2, 0xa2, 0x9c, 0xce, 0xab, 0x54, 0x98, 0xef, 0x13, 0xf1, 0x34, 0xc3, 0x25, 0x19, 0xde, 0x98, 0x0e, 0x2a, 0x0b, 0xc4, 0xe2, 0xa1, 0xb6, 0x20, 0x37, 0xfc, 0x96, 0x48, 0xd4, 0xde, 0x18, 0xd0, 0xeb, 0xf2, 0xc6, 0xbb, 0xf5, 0x11, 0x02, 0x7f, 0xe4, 0xbb, 0xeb, 0xdc, 0xaa, 0x43, 0x27, 0x11, 0xfd, 0xd1, 0xb3, 0x1d, 0x1e, 0x33, 0x16, 0x3a, 0xa0, 0x08, 0x97, 0x06, 0x34, 0xd4, 0x4e, 0x3e, 0xa4, 0x36, 0x12, 0xe0, 0xdf, 0x03, 0xe8, 0xbe, 0x29, 0x0c, 0xe3, 0xe6, 0x00, 0xde, 0x3f, 0x91, 0xe5, 0xea, 0x53, 0x26, 0xe5, 0x39, 0xb6, 0x0b, 0xd8, 0x49, 0x88, 0x99, 0xec, 0x85, 0x37, 0x01, 0xda, 0xb6, 0xe1, 0x24, 0xc0, 0x31, 0xf1, 0x7f, 0xa2, 0xe3, 0xad, 0x10, 0x2b, 0x48, 0x0e, 0xf3, 0x3b, 0x4d, 0x30, 0xd5, 0x2e, 0x4b, 0xa4, 0xf6, 0xde, 0xc6, 0x8b, 0x33, 0x1f, 0x9f, 0xe4, 0xef, 0x1b, 0xbd, 0x2e, 0x0d, 0x4a, 0xf1, 0xb3, 0xb3, 0x50, 0x0a, 0xee, 0x0a, 0x10, 0xea, 0x31, 0x21, 0x27, 0xae, 0xee, 0xe8, 0x3a, 0x2d, 0xc5, 0xe9, 0x1a, 0xc7, 0x21, 0xf4, 0x2f, 0xf0, 0xdb, 0xf7, 0xcc, 0xbf, 0xd1, 0x38, 0x02, 0x42, 0x97, 0xf0, 0x17, 0x11, 0xa9, 0xfe, 0x38, 0xb1, 0x08, 0x0c, 0xfe, 0xf9, 0xe3, 0xff, 0xec, 0x02, 0xc5, 0xbb, 0x30, 0x33, 0xe3, 0x08, 0xd3, 0x8f, 0x22, 0xb0, 0xfe, 0x01, 0x18, 0xb2, 0xfb, 0x06, 0x9d, 0x16, 0xe2, 0x34, 0xb8, 0xae, 0x10, 0xd6, 0x13, 0xba, 0x0d, 0xb0, 0xe4, 0xc4, 0x3c, 0x23, 0xe8, 0x1a, 0x2b, 0xbd, 0x75, 0x52, 0xa3, 0xb1, 0x25, 0x81, 0xab, 0xc1, 0x0a, 0xe4, 0x6c, 0xd5, 0xb8, 0xd4, 0x43, 0x17, 0x33, 0x4d, 0xf9, 0x54, 0xbf, 0xbc, 0xad, 0xd4, 0x24, 0xb7, 0x57, 0x20, 0xf8, 0x25, 0xd6, 0x50, 0x78, 0x05, 0xd3, 0xad, 0xd5, 0xe5, 0xc6, 0x2d, 0x2a, 0x25, 0xfa, 0x44, 0xbb, 0x4c, 0xd9, 0xce, 0x03, 0x49, 0xdf, 0x66, 0x30, 0xfb, 0x48, 0x3f, 0xd6, 0x67, 0xa3, 0x4f, 0xcd, 0x36, 0x23, 0xfe, 0x0b, 0x33, 0xff, 0x41, 0xef, 0xe5, 0x5f, 0xfa, 0x16, 0x41, 0x0d, 0xe1, 0xd6, 0x14, 0x05, 0xe0, 0xb8, 0xf4, 0x41, 0xff, 0x3d, 0xef, 0xdf, 0x78, 0x48, 0x10, 0x06, 0xc0, 0xfc, 0x3f, 0xd7, 0x2e, 0xf9, 0xb8, 0xf4, 0x18, 0xde, 0x21, 0xf2, 0x0b, 0xca, 0x00, 0x2a, 0xca, 0x71, 0x33, 0xbf, 0x1f, 0xb6, 0xac, 0xec, 0x00, 0x2d, 0x34, 0xeb, 0x3f, 0xff, 0xc6, 0x3a, 0xc6, 0xe7, 0x7a, 0xe6, 0xc4, 0x1f, 0x35, 0x03, 0xe1, 0xe6, 0x2f, 0xad, 0xc8, 0xbb, 0xe5, 0xcd, 0xc7, 0xfa, 0xe8, 0xe6, 0xdf, 0x6e, 0x11, 0x3a, 0xf2, 0xbf, 0xd8, 0x02, 0x78, 0x00, 0x00, 0xf6, 0xda, 0xce, 0xa9, 0x22, 0xc8, 0x40, 0x39, 0xe8, 0xf0, 0x0a, 0xf8, 0xd9, 0xdd, 0x12, 0xd3, 0x21, 0x30, 0xe0, 0xa4, 0x40, 0xd7, 0x48, 0x20, 0xfb, 0x26, 0xd9, 0x1e, 0xca, 0x25, 0xca, 0xf0, 0xcb, 0xeb, 0x35, 0x72, 0xba, 0x00, 0x07, 0x0f, 0xee, 0x53, 0xd4, 0xe5, 0x3f, 0x21, 0xcc, 0x3e, 0x21, 0x39, 0x50, 0xe7, 0x2d, 0xfe, 0x17, 0x54, 0x37, 0x2b, 0x08, 0x17, 0xf7, 0x45, 0x1b, 0x25, 0xd8, 0xe6, 0x5e, 0xe6, 0xdb, 0x00, 0x4b, 0x43, 0xe1, 0x1f, 0xe5, 0x65, 0x25, 0x62, 0x35, 0xf7, 0x33, 0x08, 0x2b, 0x5c, 0x08, 0x24, 0x22, 0x33, 0x18, 0x30, 0x14, 0x1b, 0xd1, 0x70, 0xba, 0x0e, 0x05, 0xe9, 0x3e, 0xad, 0xca, 0x36, 0xef, 0x51, 0x30, 0x10, 0xf9, 0x3a, 0xc4, 0x61, 0x26, 0x12, 0x1e, 0xd8, 0x09, 0x20, 0x01, 0x2d, 0x58, 0x1a, 0x25, 0x7f, 0x4b, 0x52, 0xf4, 0x3d, 0xfa, 0x33, 0xe3, 0x10, 0xbb, 0x46, 0xf6, 0x35, 0xed, 0xf2, 0x33, 0xcb, 0x02, 0xac, 0xce, 0xf3, 0xf8, 0x43, 0xed, 0x2e, 0xda, 0xe8, 0x31, 0xfb, 0x0a, 0x0e, 0x22, 0xef, 0x1e, 0xe3, 0xf6, 0x07, 0x2e, 0x0d, 0xca, 0x24, 0xa2, 0xf1, 0x07, 0xd4, 0xdf, 0xa6, 0xda, 0xd8, 0x28, 0xbe, 0x1e, 0xb8, 0xf1, 0xed, 0xb5, 0x0c, 0x0a, 0x1e, 0x25, 0x06, 0x96, 0x49, 0x59, 0xfd, 0xfe, 0x68, 0x3c, 0xef, 0xf2, 0x3c, 0x09, 0x37, 0xd0, 0x02, 0x3a, 0x3a, 0xf3, 0x20, 0x24, 0x49, 0xe0, 0x35, 0xf2, 0xec, 0x3f, 0x2f, 0x0c, 0x1e, 0x8b, 0xd1, 0x1d, 0x09, 0x16, 0x1b, 0xb8, 0x01, 0xdc, 0xe1, 0x01, 0xb7, 0x2c, 0xcf, 0x0c, 0x03, 0xb6, 0x33, 0xf2, 0xf9, 0xcb, 0xf4, 0xbf, 0x81, 0xfd, 0x2b, 0xce, 0x49, 0xed, 0xc6, 0x01, 0xf6, 0x00, 0x70, 0xf3, 0x3a, 0xc6, 0xb9, 0x35, 0xe6, 0xd4, 0xe8, 0xcb, 0x5a, 0x09, 0xe5, 0x41, 0xe4, 0xe4, 0xc7, 0xc3, 0x3e, 0xc2, 0xdf, 0x2c, 0xd8, 0xe8, 0x0f, 0x01, 0x5a, 0xd1, 0xdf, 0x06, 0x0a, 0x40, 0x15, 0xfb, 0x23, 0x40, 0x42, 0xd6, 0x17, 0x1e, 0x37, 0xc6, 0xb4, 0x33, 0x3b, 0x38, 0xdf, 0x2f, 0x28, 0xc9, 0xde, 0xe8, 0xee, 0x81, 0xbf, 0xb9, 0xd6, 0xf2, 0x01, 0xbf, 0xeb, 0xcc, 0xeb, 0x58, 0x01, 0xd6, 0xc6, 0x1d, 0x3a, 0xb8, 0x0d, 0xf1, 0xad, 0xdb, 0x48, 0x95, 0xe1, 0xff, 0x0c, 0x75, 0x1e, 0x18, 0xd7, 0x49, 0x56, 0xe0, 0x34, 0xd5, 0x04, 0x31, 0xa4, 0x02, 0xea, 0xf6, 0xcf, 0x13, 0xe6, 0xef, 0xde, 0x20, 0x04, 0xb1, 0xdb, 0x40, 0x40, 0xc3, 0x90, 0xd1, 0xf9, 0x56, 0xf9, 0x68, 0xda, 0xfc, 0x9b, 0x5d, 0xee, 0x90, 0xf5, 0x23, 0xde, 0xdc, 0x22, 0xd7, 0x3b, 0xf3, 0x69, 0x18, 0x0f, 0x3b, 0x24, 0x1e, 0xdc, 0x29, 0x0b, 0x45, 0x3b, 0x54, 0xd6, 0x44, 0x25, 0xf3, 0x0a, 0x68, 0x16, 0xe5, 0xf3, 0x33, 0x13, 0x44, 0xeb, 0x2f, 0x4d, 0x18, 0xb9, 0x0d, 0x01, 0x0a, 0xeb, 0x2d, 0xe7, 0x0a, 0xb3, 0x4a, 0x32, 0xbd, 0x52, 0x4f, 0x03, 0xe8, 0xf8, 0x28, 0x05, 0xf4, 0xcb, 0xe5, 0x14, 0xc4, 0xea, 0xf2, 0xeb, 0x42, 0xbb, 0xe8, 0xe0, 0xed, 0x31, 0x2c, 0xd2, 0xd7, 0xe2, 0x2f, 0x17, 0xd4, 0x1a, 0x1c, 0xc4, 0xed, 0xe1, 0xd9, 0x36, 0x05, 0x2f, 0x33, 0x2f, 0xcd, 0x0d, 0x2a, 0xe2, 0xfd, 0xd1, 0x55, 0x0a, 0xf4, 0x16, 0x0e, 0x0f, 0xda, 0x77, 0x0e, 0xf0, 0x2d, 0x36, 0xf9, 0xaa, 0x12, 0xe1, 0x49, 0x59, 0xc8, 0x23, 0x3b, 0xff, 0x31, 0xc5, 0xf4, 0x44, 0x3d, 0xf1, 0x27, 0x1f, 0xfd, 0xef, 0x20, 0x9a, 0xda, 0xa3, 0xd4, 0x4d, 0xd2, 0x30, 0x05, 0xf7, 0xc2, 0xff, 0xeb, 0xec, 0x01, 0xea, 0xdd, 0xd2, 0x15, 0x22, 0xe9, 0xe2, 0xc2, 0x1a, 0xd0, 0xfe, 0x32, 0x3f, 0xe7, 0xe7, 0x38, 0x14, 0x10, 0xa9, 0xeb, 0xec, 0x03, 0x40, 0xde, 0x13, 0x43, 0x44, 0xe3, 0x35, 0xff, 0xe0, 0x36, 0x18, 0xf2, 0xed, 0xf1, 0xd1, 0x49, 0x52, 0x08, 0xfd, 0xd7, 0x24, 0x3d, 0xbe, 0x48, 0xdc, 0x2a, 0xb0, 0x3c, 0xde, 0xb3, 0xc4, 0x12, 0xe6, 0xbd, 0x81, 0xd2, 0xf9, 0xd3, 0x17, 0xb6, 0xca, 0x11, 0x14, 0xd7, 0x12, 0x2d, 0x0a, 0xeb, 0xc3, 0x02, 0xbe, 0x11, 0xee, 0x13, 0x1b, 0x02, 0x10, 0xc9, 0x1f, 0x01, 0xf5, 0x46, 0x41, 0x19, 0xb7, 0x17, 0xba, 0xe9, 0x06, 0xcb, 0x39, 0xeb, 0xd5, 0x2d, 0xf8, 0x06, 0x16, 0xd0, 0xfb, 0x36, 0xa6, 0xfe, 0xca, 0x1b, 0xdf, 0x0f, 0xd2, 0x04, 0xfc, 0x2c, 0xe6, 0xff, 0x65, 0x0b, 0xfb, 0xc2, 0x42, 0x2b, 0xa2, 0x06, 0xe3, 0xc6, 0x06, 0xc9, 0xd3, 0x54, 0xd3, 0x3c, 0x3b, 0x03, 0xfd, 0xe3, 0x00, 0xdd, 0xf4, 0xd8, 0x37, 0x10, 0xcf, 0xbd, 0xfc, 0xdd, 0xca, 0xb4, 0xd6, 0xdc, 0x81, 0x12, 0xf1, 0x08, 0xc9, 0x1f, 0xdd, 0x1c, 0xc3, 0xb5, 0xd6, 0xf6, 0x1a, 0x37, 0xf2, 0xe6, 0xdb, 0x0e, 0x9a, 0xd0, 0x0d, 0xdb, 0x1b, 0x20, 0x02, 0x2c, 0x0d, 0x12, 0x33, 0xad, 0xf6, 0xf3, 0xec, 0x3e, 0x35, 0x11, 0xf6, 0x2e, 0x34, 0x49, 0xd3, 0x07, 0x31, 0xf1, 0x27, 0x0e, 0xc6, 0x04, 0xdd, 0xd6, 0x20, 0xfa, 0x36, 0xce, 0xbf, 0xf0, 0xd9, 0xe7, 0x06, 0x25, 0xf5, 0x50, 0x34, 0xcc, 0xe0, 0xba, 0xe1, 0xf8, 0xe4, 0x05, 0xc7, 0x35, 0x27, 0x13, 0x35, 0x1a, 0x21, 0x1f, 0x23, 0xdb, 0xe7, 0x08, 0x0f, 0xbd, 0x1c, 0xe1, 0xfc, 0x1e, 0x2a, 0x0e, 0xb9, 0x31, 0x20, 0x4f, 0x3a, 0xbd, 0x20, 0xd6, 0x21, 0xda, 0x15, 0x17, 0x2c, 0xb0, 0x13, 0x33, 0x5e, 0xd1, 0xec, 0x33, 0x20, 0x42, 0x22, 0xe8, 0x2a, 0x20, 0x45, 0x30, 0x0c, 0xd2, 0x48, 0x07, 0x28, 0x09, 0xe5, 0x3f, 0x52, 0x12, 0x1a, 0x24, 0x27, 0xed, 0x49, 0x1c, 0x37, 0x09, 0x20, 0x48, 0xb8, 0xf2, 0xdf, 0x44, 0x25, 0xcd, 0x1e, 0x39, 0x44, 0x2a, 0x4f, 0x24, 0xd9, 0x25, 0x0e, 0xeb, 0xfd, 0x0c, 0xe8, 0x2c, 0xd4, 0x0b, 0x12, 0xd8, 0x09, 0xc5, 0x2e, 0x08, 0xce, 0x16, 0x12, 0xe2, 0xf5, 0x18, 0x41, 0x03, 0x0a, 0x30, 0x1a, 0x12, 0xf0, 0xcb, 0x3a, 0xee, 0x25, 0x10, 0xe4, 0x17, 0x7f, 0xc5, 0xd6, 0x2e, 0x16, 0xeb, 0x06, 0xd9, 0x3a, 0xf3, 0xfe, 0xe2, 0x1f, 0x26, 0x20, 0x2e, 0xd5, 0x57, 0xdd, 0x2c, 0x43, 0x12, 0x1a, 0x02, 0xf5, 0x07, 0x07, 0xe9, 0x33, 0x11, 0x24, 0x2c, 0xd8, 0x28, 0x03, 0x3d, 0xfa, 0xca, 0xf0, 0xf8, 0xd0, 0x1f, 0xf4, 0x11, 0x2c, 0x07, 0x39, 0x09, 0x0a, 0x39, 0x09, 0x02, 0xd7, 0xcf, 0xfd, 0xfc, 0xf6, 0xfa, 0xc9, 0xed, 0xe1, 0xb2, 0xe5, 0xc9, 0xe9, 0xb1, 0x40, 0xc9, 0xd7, 0x31, 0x35, 0xd7, 0x55, 0x20, 0x7f, 0xdc, 0xe7, 0xdd, 0x1f, 0xfa, 0xdc, 0x13, 0x2e, 0x34, 0xda, 0x46, 0x13, 0x36, 0x0e, 0x03, 0x1a, 0x3c, 0xed, 0xed, 0x07, 0xef, 0xac, 0xef, 0x31, 0xe3, 0xcb, 0x3f, 0x52, 0x0a, 0xec, 0x3f, 0x46, 0x46, 0xa5, 0xce, 0xce, 0xcf, 0xc8, 0x9a, 0x2c, 0xf0, 0xfd, 0xca, 0x05, 0xec, 0xbf, 0xb8, 0x45, 0xc4, 0xff, 0xc3, 0x0b, 0x09, 0x0b, 0x07, 0xe3, 0x17, 0xe9, 0xfb, 0x57, 0xcf, 0x27, 0x01, 0x3c, 0xed, 0xde, 0xee, 0xdf, 0x06, 0x0a, 0xfe, 0xdc, 0xef, 0x0e, 0xfe, 0xd4, 0x05, 0xf6, 0x1b, 0x2a, 0xf0, 0xaa, 0xfa, 0xfb, 0xb6, 0xea, 0x01, 0x20, 0xd3, 0xb0, 0x11, 0xdb, 0x0c, 0x9c, 0xb5, 0xd5, 0xbc, 0xa0, 0x08, 0xd6, 0xec, 0x2f, 0xd0, 0x32, 0x02, 0xcb, 0x43, 0x05, 0xec, 0xe6, 0xfc, 0xcd, 0xce, 0xf3, 0xf4, 0xff, 0xd3, 0xcf, 0xcc, 0x42, 0xdb, 0x14, 0x04, 0xcd, 0xe5, 0xc6, 0xff, 0xc8, 0x32, 0xd0, 0x16, 0x3a, 0x95, 0xae, 0xf7, 0xb6, 0x39, 0x57, 0x09, 0x68, 0x34, 0x25, 0x18, 0xb4, 0xe5, 0x33, 0xc6, 0xea, 0xe6, 0xe6, 0x38, 0xf4, 0x2a, 0x0f, 0xff, 0x1b, 0x1d, 0xf9, 0xfd, 0xf1, 0xde, 0x02, 0xee, 0x42, 0xfe, 0xcc, 0x55, 0x1d, 0x54, 0x20, 0x13, 0x72, 0x33, 0x13, 0x4a, 0x98, 0x48, 0xcd, 0x18, 0xe4, 0xda, 0xe8, 0x0e, 0x2a, 0x3b, 0xbd, 0xbd, 0xb3, 0xe3, 0x81, 0x33, 0xbe, 0x10, 0x13, 0x43, 0xe0, 0x2a, 0xd9, 0x47, 0x46, 0x1b, 0xe1, 0x1a, 0xc0, 0xf8, 0xf9, 0xe0, 0x06, 0x02, 0x28, 0xfb, 0x2a, 0xe9, 0xe9, 0x27, 0x55, 0x19, 0xf4, 0x0b, 0x15, 0x3f, 0x03, 0x22, 0x3c, 0xde, 0xa1, 0xea, 0xb0, 0xe3, 0x0b, 0xcc, 0xee, 0xd0, 0x9a, 0x2a, 0xfd, 0xc9, 0xe8, 0xc6, 0xfa, 0xc3, 0x19, 0x24, 0x2b, 0x16, 0xed, 0xbd, 0xe7, 0xa4, 0xbd, 0xe2, 0x13, 0xc1, 0x01, 0xf6, 0xfb, 0xc5, 0x31, 0xa5, 0x26, 0xd0, 0xed, 0xe3, 0xb6, 0xd6, 0x21, 0xe4, 0x1b, 0x8e, 0xd7, 0x81, 0xaf, 0xc9, 0xdb, 0x12, 0xcb, 0x18, 0xc8, 0xbb, 0xfc, 0x14, 0xe5, 0xe5, 0xce, 0x0a, 0xc0, 0x8f, 0xf0, 0x3b, 0xfe, 0x31, 0x0d, 0xd6, 0x31, 0xcd, 0x2f, 0xa3, 0xbe, 0xa6, 0x0e, 0x10, 0xf1, 0xc6, 0x25, 0xd5, 0xbf, 0xd3, 0xfa, 0x33, 0x3d, 0x86, 0xa5, 0xfe, 0xd2, 0x93, 0x2f, 0xc1, 0x3d, 0x98, 0x48, 0xf9, 0xfe, 0xf0, 0x9d, 0xc3, 0xe8, 0xc9, 0xce, 0x1f, 0xd5, 0x2f, 0xde, 0xcf, 0xde, 0x8c, 0x49, 0xf0, 0xe7, 0xe7, 0x2c, 0xfb, 0x28, 0xc3, 0x24, 0xef, 0xf4, 0xad, 0xd3, 0xba, 0xb7, 0x1a, 0x2d, 0x8e, 0x43, 0xbb, 0x0f, 0xb9, 0x36, 0xf2, 0xd8, 0x46, 0xdd, 0x08, 0x59, 0xe8, 0x3e, 0x40, 0x47, 0xdf, 0xe9, 0x3d, 0xce, 0x23, 0xc1, 0x3f, 0xfc, 0xed, 0xfe, 0x29, 0xe1, 0xe9, 0xf2, 0x26, 0x81, 0x1b, 0xdf, 0x18, 0x30, 0x14, 0x09, 0x16, 0x2e, 0xcb, 0x14, 0x08, 0xe2, 0xd3, 0xb6, 0xc4, 0xd4, 0x0d, 0x02, 0x0d, 0xf5, 0xa1, 0xf7, 0xe1, 0xf2, 0x0e, 0x21, 0x27, 0xfd, 0xbd, 0xc5, 0x33, 0xe2, 0xff, 0x20, 0x32, 0xe7, 0x2f, 0xe9, 0xfc, 0xc7, 0xd0, 0x2d, 0x2d, 0xe3, 0xea, 0xbe, 0xf3, 0xf6, 0x24, 0x01, 0x06, 0xce, 0xa4, 0x1c, 0x19, 0x2e, 0xe3, 0xd4, 0xca, 0x2b, 0x32, 0xac, 0xfb, 0x0b, 0x04, 0xf7, 0x2c, 0xff, 0xe7, 0x1b, 0x42, 0x2e, 0xc8, 0x05, 0x17, 0x14, 0xec, 0xc2, 0x2f, 0xca, 0x1f, 0xfb, 0x2b, 0xe1, 0x32, 0x33, 0x3d, 0xf0, 0x33, 0x15, 0xcf, 0xd5, 0x3b, 0xaf, 0xea, 0xe5, 0xf9, 0xef, 0x2f, 0xd8, 0x00, 0x4e, 0xdd, 0xe2, 0x03, 0xbd, 0xce, 0x93, 0xe6, 0xd0, 0x2e, 0x1a, 0xd6, 0xf9, 0xe5, 0xfc, 0xce, 0xfc, 0xe0, 0x30, 0xf5, 0x1e, 0xdf, 0xe0, 0x11, 0xbc, 0x11, 0xf2, 0xdc, 0x38, 0xf0, 0x15, 0x0b, 0x9f, 0xfa, 0x7c, 0xa5, 0xc0, 0x52, 0x13, 0x58, 0x51, 0xbf, 0x41, 0x01, 0x79, 0xff, 0xf6, 0x08, 0xff, 0xd8, 0xcf, 0xfb, 0x03, 0x32, 0xd8, 0x21, 0x13, 0x37, 0xcc, 0xba, 0xd5, 0xce, 0xb5, 0x16, 0x30, 0xc3, 0xd6, 0xa0, 0xd4, 0x5d, 0x40, 0xd4, 0x22, 0x0b, 0x0b, 0x41, 0xf7, 0xdb, 0xe8, 0xd5, 0xab, 0xd9, 0xc1, 0xdf, 0x92, 0x00, 0x4d, 0xf7, 0x0f, 0x40, 0xca, 0xdc, 0xc1, 0xd5, 0x37, 0xb9, 0x1c, 0x26, 0xd1, 0xcc, 0xee, 0xc0, 0x75, 0x03, 0x64, 0x37, 0x94, 0xae, 0x0f, 0xff, 0x57, 0xd3, 0xf1, 0x67, 0xc8, 0x3c, 0xc5, 0x19, 0x62, 0x04, 0xcc, 0xe1, 0x25, 0x22, 0xf5, 0x54, 0x29, 0x94, 0xd3, 0x31, 0x37, 0xe9, 0xcb, 0x9d, 0xc7, 0x3b, 0xc8, 0xff, 0x83, 0x38, 0xad, 0x24, 0x3b, 0x1a, 0xc3, 0xea, 0x28, 0x81, 0x0d, 0xf2, 0xce, 0x0b, 0xc6, 0xf9, 0xd1, 0xc2, 0x12, 0x1e, 0x59, 0xac, 0x29, 0xde, 0x59, 0x9f, 0x04, 0x45, 0xf2, 0xde, 0x0f, 0x1e, 0x06, 0xf2, 0x4d, 0xd9, 0x1a, 0x11, 0xe3, 0x39, 0x0a, 0xf9, 0xe6, 0x04, 0x3c, 0x2d, 0x4b, 0xc4, 0x58, 0x05, 0xda, 0x1a, 0x0e, 0x21, 0xce, 0x13, 0xd2, 0xca, 0xbe, 0x20, 0x4b, 0xc3, 0xef, 0x46, 0x92, 0x3c, 0x09, 0xe5, 0x25, 0x22, 0xe2, 0x17, 0xf6, 0xd8, 0xf2, 0x1e, 0x0a, 0x03, 0xef, 0xe0, 0x51, 0xbc, 0x29, 0x0e, 0xbf, 0xd5, 0xe0, 0xfd, 0x03, 0xb3, 0x97, 0xc1, 0xe6, 0x49, 0x0d, 0x21, 0x39, 0xe6, 0x2d, 0xea, 0x18, 0xba, 0x37, 0x1e, 0xb7, 0xac, 0xff, 0x11, 0x14, 0x2e, 0xda, 0xf3, 0xe3, 0x3b, 0xfc, 0xfe, 0x28, 0xcd, 0x98, 0x39, 0xb8, 0xce, 0x21, 0x21, 0x5f, 0x25, 0xe7, 0xf7, 0xa9, 0xb8, 0xcd, 0xe7, 0xeb, 0xe4, 0xec, 0xc8, 0x34, 0xbb, 0x1e, 0xbb, 0xf1, 0x47, 0x4e, 0x1f, 0xde, 0x1b, 0x19, 0x1b, 0x35, 0xd5, 0xe5, 0xbc, 0xe7, 0xe0, 0xfe, 0x1d, 0xdc, 0xbb, 0x93, 0xf9, 0x9f, 0xc4, 0xc5, 0x15, 0x07, 0x8d, 0x28, 0xb6, 0x47, 0x81, 0xfa, 0xd4, 0x04, 0xf9, 0x1f, 0x3a, 0x02, 0xe2, 0xb9, 0x0b, 0x21, 0x14, 0x4a, 0xe5, 0x43, 0x13, 0xd3, 0xa9, 0x2a, 0xcc, 0x50, 0x12, 0xb6, 0xeb, 0x41, 0x07, 0x1e, 0x5d, 0xdf, 0x2a, 0xc2, 0x10, 0xaf, 0xae, 0x09, 0x1c, 0x26, 0xe4, 0xaf, 0xbb, 0xd6, 0x1d, 0xae, 0x42, 0x7f, 0xf4, 0x13, 0x2f, 0x44, 0x2f, 0xce, 0xdc, 0xdd, 0x36, 0xef, 0x16, 0xb0, 0xfb, 0x05, 0xab, 0x34, 0x38, 0xff, 0xe1, 0xb1, 0x3b, 0xb5, 0x18, 0xf3, 0x09, 0x0d, 0x23, 0xff, 0x20, 0x34, 0x42, 0xe5, 0x2c, 0x0a, 0xa7, 0x15, 0x35, 0xea, 0x50, 0x57, 0xdf, 0x2d, 0x26, 0x41, 0xb5, 0x50, 0x63, 0x42, 0xd2, 0xf1, 0x2a, 0x33, 0x3b, 0xcf, 0xf7, 0xbc, 0x2d, 0xb4, 0x45, 0x36, 0x22, 0x4c, 0x24, 0x7f, 0x32, 0x08, 0xe7, 0xa1, 0x0a, 0xc4, 0xb7, 0x20, 0xae, 0xfe, 0xff, 0x52, 0xc6, 0x43, 0x33, 0x60, 0xf7, 0xdd, 0xf4, 0x89, 0x34, 0x89, 0x3d, 0x3e, 0xc7, 0x99, 0xdf, 0xd7, 0xde, 0x39, 0xbe, 0x68, 0xd9, 0xc9, 0x07, 0x40, 0x5a, 0xfc, 0x0f, 0x12, 0xdb, 0x16, 0xd2, 0xb5, 0x20, 0x02, 0x0f, 0x0c, 0x11, 0xf5, 0x39, 0x1f, 0xe0, 0xdf, 0xf5, 0xe8, 0xed, 0x15, 0xc6, 0xbf, 0xf3, 0xff, 0xb4, 0x0a, 0x1f, 0xd2, 0x52, 0x20, 0xf2, 0xfb, 0x10, 0xba, 0xf7, 0xd3, 0xec, 0xf3, 0x4a, 0x11, 0x11, 0x15, 0xd3, 0xd1, 0x16, 0x11, 0xc1, 0x19, 0xec, 0xef, 0xf3, 0x03, 0xd0, 0x31, 0x23, 0x47, 0xd4, 0xdd, 0x1e, 0x0f, 0x7f, 0x43, 0xc6, 0x3e, 0x06, 0xd6, 0x31, 0xee, 0x2d, 0xe3, 0x1a, 0x32, 0xcf, 0xc0, 0x2b, 0xfa, 0x6c, 0x2d, 0xea, 0x01, 0x07, 0xc3, 0x03, 0x18, 0xe9, 0x3a, 0x19, 0xe0, 0xe0, 0xe2, 0x00, 0xed, 0x42, 0x23, 0x09, 0x15, 0x0a, 0xf6, 0x2f, 0x26, 0xf3, 0x08, 0xdb, 0x05, 0xda, 0x3a, 0xf4, 0x34, 0xc5, 0xc0, 0x2e, 0xe5, 0x2f, 0xe4, 0x0a, 0x0e, 0x13, 0x2f, 0xff, 0xee, 0xe9, 0x22, 0xd6, 0xfe, 0xb4, 0xee, 0xd1, 0x01, 0x03, 0xe6, 0x26, 0xf3, 0xe5, 0xe3, 0x07, 0x08, 0xc8, 0xce, 0xff, 0xd5, 0xba, 0xec, 0x34, 0x13, 0x03, 0x2d, 0x13, 0x14, 0xe9, 0xe5, 0x2b, 0xbb, 0x35, 0xe9, 0xec, 0xd7, 0xee, 0x2a, 0x0d, 0xc6, 0xa7, 0x1d, 0xe7, 0x25, 0xe0, 0xd1, 0x18, 0x2f, 0x35, 0x2a, 0x19, 0x03, 0x03, 0x02, 0x49, 0xf5, 0xfb, 0xc8, 0x10, 0xc9, 0x03, 0x5e, 0x08, 0x42, 0x46, 0x1d, 0xc9, 0xdd, 0xd4, 0xd3, 0xe8, 0xd5, 0xee, 0x05, 0x0b, 0x6d, 0x11, 0x33, 0x1b, 0x06, 0xf4, 0x27, 0x39, 0x2d, 0x7b, 0x7f, 0xe3, 0x12, 0xb8, 0x3e, 0x3a, 0xdc, 0x0e, 0x31, 0xf7, 0xf1, 0xdf, 0x06, 0xdf, 0xeb, 0x5a, 0xea, 0x2b, 0xc2, 0x26, 0x4f, 0x08, 0x14, 0x0c, 0x0c, 0xf7, 0x02, 0x27, 0x30, 0xc8, 0xb2, 0x60, 0x6b, 0xca, 0x7b, 0x26, 0x0d, 0x12, 0x19, 0x23, 0x90, 0xd4, 0xd3, 0xce, 0xfd, 0xfb, 0x57, 0x38, 0x19, 0x0f, 0xf5, 0xf0, 0x2a, 0x3d, 0x04, 0x16, 0x3e, 0xec, 0x16, 0xd2, 0xeb, 0x36, 0x44, 0xc7, 0x0b, 0xc4, 0x16, 0x14, 0x28, 0xc9, 0x39, 0xb8, 0x48, 0xf4, 0xc0, 0xed, 0x23, 0xd7, 0xf8, 0xec, 0xa2, 0xb6, 0xfe, 0x3b, 0xf1, 0xb6, 0x25, 0xde, 0x06, 0x03, 0xfa, 0x3e, 0x4c, 0x09, 0x09, 0x0f, 0xd5, 0xfa, 0x52, 0x51, 0x1a, 0xd6, 0xf9, 0xe3, 0xce, 0x63, 0xd8, 0x20, 0x45, 0x2c, 0x30, 0xfd, 0xd4, 0x20, 0xe8, 0xf7, 0xfa, 0xb0, 0x35, 0xd2, 0xe7, 0x28, 0xe1, 0xf5, 0x2a, 0xe9, 0x40, 0xe4, 0xeb, 0x3f, 0xec, 0xc4, 0xdf, 0x07, 0x4f, 0x10, 0xcc, 0x28, 0xe8, 0x37, 0x46, 0x2e, 0xd0, 0xeb, 0x35, 0x11, 0xfa, 0xeb, 0x03, 0xe4, 0x06, 0xf9, 0xe2, 0x2b, 0xce, 0xec, 0x44, 0xf5, 0xd2, 0x06, 0x41, 0x05, 0x01, 0xe3, 0xe6, 0x11, 0xe8, 0xd0, 0xfa, 0x32, 0x0f, 0xfa, 0x02, 0x10, 0xe7, 0xef, 0x3f, 0xcf, 0xe2, 0xed, 0xe6, 0xd2, 0xe2, 0xe2, 0xff, 0xf5, 0xce, 0x16, 0x7f, 0xe2, 0xce, 0x26, 0x05, 0xd6, 0xd4, 0x18, 0xe2, 0xe5, 0xff, 0xcd, 0xd9, 0x0c, 0xbd, 0x12, 0x1f, 0xb5, 0x04, 0xd2, 0x1a, 0x10, 0xbe, 0xc3, 0x04, 0x0d, 0x38, 0xc7, 0xdd, 0x24, 0xe7, 0xe3, 0xf7, 0x11, 0xe0, 0x2f, 0x0e, 0x19, 0x25, 0x35, 0xed, 0x13, 0xef, 0xe5, 0x2e, 0xba, 0xff, 0xff, 0x04, 0x00, 0x00, 0x00, 0x80, 0x00, 0x00, 0x00, 0x49, 0x0f, 0x00, 0x00, 0x51, 0x06, 0x00, 0x00, 0x4c, 0x09, 0x00, 0x00, 0x53, 0x04, 0x00, 0x00, 0xa8, 0x05, 0x00, 0x00, 0xfb, 0x17, 0x00, 0x00, 0xeb, 0x16, 0x00, 0x00, 0xd5, 0xfe, 0xff, 0xff, 0xf5, 0xf9, 0xff, 0xff, 0x99, 0xfb, 0xff, 0xff, 0x46, 0x04, 0x00, 0x00, 0xcb, 0x05, 0x00, 0x00, 0xad, 0x13, 0x00, 0x00, 0xd1, 0xef, 0xff, 0xff, 0x69, 0x12, 0x00, 0x00, 0x0a, 0x0b, 0x00, 0x00, 0x2e, 0xf5, 0xff, 0xff, 0x1f, 0xf1, 0xff, 0xff, 0xa9, 0x06, 0x00, 0x00, 0x09, 0xf9, 0xff, 0xff, 0x7f, 0x11, 0x00, 0x00, 0x7e, 0xfd, 0xff, 0xff, 0x2d, 0xef, 0xff, 0xff, 0x8f, 0x01, 0x00, 0x00, 0x53, 0xee, 0xff, 0xff, 0x7e, 0x13, 0x00, 0x00, 0x03, 0xfd, 0xff, 0xff, 0x4a, 0xff, 0xff, 0xff, 0x97, 0xf0, 0xff, 0xff, 0x30, 0x01, 0x00, 0x00, 0xa4, 0x01, 0x00, 0x00, 0xc0, 0x09, 0x00, 0x00, 0xba, 0xba, 0xff, 0xff, 0x04, 0x00, 0x00, 0x00, 0x00, 0x24, 0x00, 0x00, 0xd7, 0x25, 0xf3, 0x18, 0xf5, 0x07, 0xe0, 0x3c, 0x3a, 0xe3, 0xcb, 0x1b, 0xd1, 0x1d, 0xc6, 0x40, 0x5c, 0x04, 0x76, 0x4b, 0xbd, 0x5e, 0x4e, 0x13, 0xe0, 0x2c, 0xe9, 0xc6, 0x18, 0x59, 0xed, 0xb3, 0x05, 0x09, 0xc9, 0x18, 0x1f, 0x0f, 0x11, 0xf8, 0xcc, 0x25, 0xbf, 0xd3, 0x07, 0x0c, 0xfb, 0x01, 0xf9, 0xbb, 0x50, 0x0e, 0xfe, 0x18, 0xc2, 0xca, 0x40, 0x22, 0xc2, 0xd8, 0x17, 0x0a, 0xe1, 0x11, 0xed, 0xb4, 0xf8, 0xeb, 0x8d, 0x0e, 0xe3, 0xe6, 0x00, 0xbc, 0xf7, 0xc1, 0xec, 0x04, 0xc8, 0xbd, 0x94, 0xa9, 0x37, 0x29, 0x29, 0xa6, 0xd2, 0xd0, 0x1a, 0xf4, 0xd8, 0xc1, 0x01, 0xbc, 0xdb, 0xfc, 0x18, 0x0d, 0x0e, 0x2d, 0x58, 0x38, 0xc6, 0xe4, 0x05, 0x02, 0x3a, 0xc7, 0xe6, 0x38, 0xdf, 0x01, 0x22, 0xe5, 0x72, 0xbd, 0x09, 0xda, 0x2d, 0x3e, 0x22, 0xe5, 0x35, 0xf0, 0x37, 0xdf, 0x36, 0x05, 0xdf, 0xfa, 0x18, 0xe0, 0x0a, 0xfd, 0x28, 0xf5, 0xe6, 0x24, 0xc0, 0x2e, 0xff, 0xdb, 0x06, 0xd7, 0xf3, 0x49, 0x0d, 0x10, 0x1a, 0x33, 0x03, 0xe1, 0xe0, 0xde, 0xfb, 0xe2, 0x09, 0xe8, 0x1c, 0xf4, 0xd3, 0xe1, 0xc2, 0xfe, 0xb0, 0xf1, 0xee, 0xcf, 0x23, 0x06, 0x82, 0xdf, 0x08, 0x10, 0xf6, 0x15, 0xc9, 0x30, 0xfa, 0xf7, 0x05, 0xd0, 0xfe, 0xc1, 0x0c, 0xd0, 0x17, 0x11, 0x1c, 0xe8, 0x01, 0x23, 0x32, 0xfc, 0xa8, 0xf1, 0x02, 0x1c, 0xf5, 0x15, 0x28, 0xdd, 0xe1, 0x22, 0xf4, 0x14, 0xc9, 0xdb, 0xe8, 0xfa, 0x58, 0xe4, 0xc6, 0x92, 0xec, 0xfe, 0xc5, 0xfa, 0x2d, 0xe9, 0x10, 0xf1, 0xbf, 0x1e, 0x07, 0x3f, 0xbc, 0x3b, 0x52, 0xed, 0xe7, 0x4c, 0xcc, 0xf6, 0xf4, 0xf8, 0x03, 0xe4, 0x0e, 0x46, 0x6f, 0x4b, 0x47, 0xd5, 0xfc, 0x60, 0x55, 0x34, 0x1d, 0xcb, 0xdd, 0xc5, 0x0e, 0xe0, 0xea, 0x17, 0xd2, 0xc9, 0xc0, 0xda, 0x24, 0xf6, 0x29, 0x36, 0xca, 0xd6, 0xf8, 0x14, 0xd8, 0x1c, 0x03, 0xcc, 0xc6, 0xec, 0x7f, 0x02, 0xe1, 0x07, 0x46, 0xc8, 0xe0, 0x00, 0xe7, 0x2b, 0xe6, 0x28, 0xd3, 0x0d, 0x18, 0x1d, 0x8e, 0x36, 0xdb, 0xd6, 0x20, 0xb3, 0x21, 0x38, 0x37, 0xe4, 0xb7, 0xcd, 0x0e, 0xb8, 0x8b, 0x13, 0x9c, 0xe4, 0xf7, 0x82, 0x9f, 0x1d, 0xf6, 0x3c, 0x33, 0xeb, 0xde, 0xe9, 0xfa, 0xe7, 0x34, 0x1e, 0xae, 0x07, 0x99, 0x02, 0xea, 0xd8, 0xd5, 0x11, 0xf3, 0xd4, 0xeb, 0xd8, 0x3b, 0x0a, 0xdc, 0xf1, 0xfc, 0x22, 0xda, 0xbc, 0xf9, 0x2b, 0x2d, 0xeb, 0xd1, 0x19, 0xea, 0x26, 0xe3, 0xdd, 0xf1, 0xd7, 0xe7, 0xf2, 0x7c, 0xd7, 0x32, 0x0f, 0x05, 0xf2, 0x8e, 0xca, 0x0b, 0xd3, 0x03, 0x1a, 0xd4, 0x2d, 0x51, 0x42, 0x3b, 0x01, 0xb2, 0xfc, 0xf5, 0x18, 0xdc, 0xd7, 0xf4, 0x09, 0x03, 0xe0, 0x41, 0x00, 0xf0, 0xbc, 0x28, 0xe6, 0x17, 0xd9, 0xeb, 0x14, 0x02, 0x1b, 0xec, 0xe4, 0xd8, 0xf2, 0x97, 0xf6, 0xfa, 0x05, 0xf1, 0xad, 0xe1, 0x19, 0x1f, 0xec, 0xf3, 0x1b, 0xbc, 0xd3, 0x0f, 0xb1, 0x2f, 0x16, 0xe0, 0xb8, 0x14, 0x44, 0xfc, 0x23, 0x01, 0xd9, 0x10, 0x04, 0xc4, 0xd2, 0xf0, 0x10, 0xd7, 0xd2, 0x03, 0x32, 0xff, 0x94, 0xd7, 0x0b, 0x03, 0x2d, 0xff, 0x11, 0xe7, 0xf0, 0x1f, 0x03, 0xe4, 0x01, 0xcb, 0x2b, 0xcf, 0x24, 0x18, 0xe9, 0xfe, 0xf8, 0xf8, 0x2c, 0x04, 0xcd, 0xfd, 0x24, 0x21, 0x21, 0x23, 0x25, 0xf3, 0x48, 0x33, 0x14, 0xfb, 0xee, 0xf5, 0x3a, 0xd6, 0x00, 0x2a, 0xd0, 0x25, 0x3c, 0xb8, 0x48, 0x23, 0x2a, 0x3b, 0x0c, 0x0b, 0x32, 0xf0, 0xfc, 0xa9, 0x1c, 0x19, 0xec, 0xfd, 0x5c, 0xfd, 0x04, 0x2c, 0xd3, 0xd0, 0x5a, 0xd7, 0xe9, 0x33, 0x2d, 0x0b, 0xfd, 0xec, 0xab, 0xe7, 0xf0, 0x0b, 0xf8, 0x36, 0x13, 0xfd, 0x81, 0xd7, 0x33, 0xed, 0xe3, 0xee, 0xe1, 0x21, 0x11, 0x28, 0xe8, 0x1d, 0x22, 0xe2, 0x14, 0xf1, 0xe5, 0x2b, 0x1b, 0xd9, 0x09, 0x3b, 0x05, 0xf1, 0x32, 0x1d, 0xff, 0xd8, 0x14, 0xcd, 0x23, 0xde, 0x12, 0x32, 0xe1, 0xd3, 0x2e, 0x09, 0xe2, 0x14, 0x18, 0x05, 0xcc, 0x25, 0xe2, 0xba, 0x2a, 0xc7, 0xc5, 0x34, 0xf8, 0x06, 0xe9, 0x11, 0x07, 0xcc, 0x55, 0xed, 0xf6, 0x1f, 0xe3, 0x16, 0x04, 0xe2, 0x2d, 0xf0, 0xd3, 0x17, 0xff, 0xe0, 0x1b, 0xfe, 0xf6, 0x0b, 0xff, 0x02, 0xe5, 0x21, 0x0f, 0x37, 0x03, 0x21, 0xdf, 0xe2, 0xf2, 0x31, 0xc7, 0x0b, 0x27, 0xd4, 0xf7, 0x3d, 0x5a, 0x27, 0x01, 0x1a, 0xbf, 0x21, 0xf2, 0xf7, 0xdd, 0x28, 0xef, 0xdc, 0x1c, 0x07, 0x32, 0xfa, 0xc2, 0x05, 0x16, 0x42, 0x09, 0xf1, 0x17, 0xd7, 0xfc, 0x17, 0x00, 0xdc, 0x2e, 0x03, 0x10, 0x25, 0x23, 0x4b, 0xef, 0x12, 0x1a, 0xec, 0xe6, 0x1d, 0x02, 0x22, 0xf4, 0xcc, 0x7f, 0x31, 0xed, 0xe3, 0xef, 0x0e, 0x35, 0x0d, 0x2e, 0x1b, 0xdf, 0xe5, 0xd6, 0x33, 0x1e, 0x07, 0x15, 0xe9, 0xd3, 0x19, 0xff, 0x0b, 0xea, 0xd0, 0x28, 0x0b, 0x17, 0xe4, 0x17, 0x46, 0xf3, 0x0c, 0xe3, 0xf1, 0xf0, 0x39, 0x31, 0x0e, 0xd6, 0x27, 0xe9, 0xff, 0x0b, 0xe6, 0xe2, 0xfe, 0xe2, 0xe5, 0x58, 0xd3, 0x0f, 0x3b, 0xcf, 0xdd, 0xcc, 0xf0, 0xf3, 0x04, 0x07, 0x27, 0xf8, 0x46, 0x06, 0xdf, 0x29, 0x2d, 0xe1, 0xed, 0x04, 0xe8, 0x16, 0xf4, 0xe7, 0x21, 0xfa, 0xf3, 0xdd, 0xfe, 0x1f, 0x17, 0x16, 0x17, 0xfd, 0x45, 0xe4, 0xf9, 0xe0, 0x19, 0xb7, 0xd7, 0xd0, 0x2a, 0xe2, 0x42, 0xe9, 0x0c, 0xdc, 0x02, 0x02, 0x3a, 0x1b, 0xe7, 0xe1, 0x08, 0xed, 0xef, 0xd4, 0xe7, 0xd3, 0x00, 0xfc, 0x0e, 0xf5, 0x15, 0xeb, 0x28, 0x20, 0x30, 0x2e, 0xda, 0x1b, 0xff, 0xd2, 0xec, 0xf5, 0x31, 0x06, 0xf9, 0x30, 0xf5, 0x1e, 0x35, 0xd0, 0xea, 0xe5, 0x41, 0x1b, 0x19, 0x23, 0x04, 0x00, 0xe8, 0xff, 0x20, 0xcf, 0x0f, 0x04, 0x3b, 0x06, 0xc1, 0xea, 0x1f, 0x10, 0x02, 0x1c, 0xcb, 0xff, 0x2a, 0xfe, 0x2e, 0xe0, 0x20, 0x2a, 0xfa, 0x0c, 0x03, 0x17, 0x0a, 0x1d, 0x35, 0xc4, 0xda, 0xef, 0xdf, 0x08, 0x19, 0xfc, 0xe2, 0x02, 0x16, 0xf8, 0x03, 0xf6, 0x0b, 0xb5, 0x28, 0x19, 0x30, 0xe3, 0xfc, 0xed, 0xe7, 0x19, 0x00, 0x05, 0x16, 0x0e, 0x0c, 0x2d, 0xec, 0xce, 0xfa, 0xd6, 0xe4, 0x09, 0x05, 0x29, 0x0f, 0x07, 0xc2, 0xc6, 0x06, 0x86, 0xf8, 0x1c, 0xc0, 0x0d, 0x1c, 0xc1, 0xc2, 0xe4, 0x1b, 0x22, 0x02, 0x14, 0xb7, 0xb5, 0x07, 0x04, 0xd5, 0xa4, 0x87, 0xc2, 0x15, 0x02, 0xff, 0x01, 0xd0, 0xe6, 0x06, 0xe3, 0xe6, 0x09, 0x30, 0xf2, 0x7f, 0x13, 0xcd, 0x3e, 0xd2, 0xab, 0x3c, 0xaf, 0x3f, 0x00, 0x28, 0x97, 0xeb, 0xe1, 0xdd, 0xc3, 0xc7, 0xb5, 0xf0, 0xcc, 0x04, 0x39, 0x03, 0xbe, 0xcb, 0xeb, 0xd9, 0x42, 0x1a, 0xe9, 0xc2, 0x38, 0xcc, 0x41, 0x15, 0x0e, 0xda, 0xff, 0x5b, 0x2d, 0xb3, 0x46, 0xe8, 0x9b, 0x16, 0x0c, 0xfa, 0xc1, 0x09, 0xbf, 0x16, 0x15, 0x0c, 0x00, 0x66, 0x02, 0xfb, 0xfd, 0x0f, 0x39, 0xe9, 0xbd, 0xdf, 0xf5, 0x90, 0x92, 0x1f, 0x2d, 0x36, 0x42, 0x9b, 0xdb, 0x1c, 0xdc, 0xc4, 0xa1, 0xd4, 0xcb, 0x34, 0x41, 0xf8, 0xe2, 0xf7, 0xe5, 0x29, 0xb3, 0xde, 0xff, 0xdc, 0x2c, 0x19, 0x0b, 0x96, 0xef, 0x4a, 0xd6, 0x70, 0x8b, 0xdb, 0x42, 0x23, 0xb7, 0xf3, 0xf9, 0x29, 0xb8, 0xa9, 0xeb, 0xda, 0x9b, 0x24, 0xde, 0x05, 0x40, 0x10, 0xf4, 0x16, 0x06, 0xdc, 0xd5, 0x06, 0x49, 0xdf, 0xf4, 0x25, 0xee, 0xf8, 0xf7, 0xbd, 0xdd, 0xd9, 0x1a, 0xdf, 0xd9, 0xb2, 0xd0, 0xf7, 0xf1, 0xc8, 0xe9, 0xa6, 0xe1, 0x60, 0x66, 0xcd, 0xc4, 0x24, 0xe7, 0x34, 0x26, 0xef, 0xb9, 0x16, 0xe7, 0x0b, 0xc2, 0xe4, 0x03, 0xe3, 0x35, 0xc2, 0xc5, 0x26, 0xdc, 0xf6, 0x4e, 0xcc, 0x25, 0xc9, 0xfd, 0x25, 0x04, 0x1b, 0x45, 0x9e, 0xef, 0x30, 0xea, 0x1d, 0x21, 0x01, 0x27, 0x58, 0x06, 0xf7, 0x4b, 0xc6, 0xd6, 0xce, 0xe3, 0x3f, 0xc2, 0xda, 0x08, 0xde, 0xf3, 0xf6, 0x4e, 0xe9, 0x3d, 0x68, 0x1d, 0xe1, 0x12, 0x45, 0xd3, 0xca, 0x0c, 0xee, 0x0f, 0xe3, 0x4b, 0xd6, 0xa5, 0x25, 0x16, 0xdc, 0x65, 0x18, 0xb3, 0x06, 0x95, 0x0b, 0xd4, 0x1b, 0x12, 0x21, 0x48, 0xeb, 0x29, 0x52, 0x29, 0xe4, 0x24, 0xbe, 0xc3, 0x22, 0xec, 0x59, 0x6c, 0x4b, 0xea, 0x96, 0xce, 0x0b, 0xb9, 0xd3, 0x21, 0x1b, 0xc0, 0x16, 0x01, 0xcf, 0xee, 0xf3, 0x17, 0x27, 0x31, 0x16, 0x00, 0x12, 0x20, 0x6d, 0x09, 0xae, 0x06, 0x2d, 0x7f, 0xe3, 0x19, 0xd2, 0x16, 0x07, 0x1e, 0xba, 0x04, 0xff, 0xf0, 0xe7, 0x3a, 0x29, 0x01, 0x2a, 0x0a, 0xc7, 0x31, 0x6f, 0xe1, 0x2b, 0xee, 0xe8, 0xc8, 0xd6, 0x07, 0x06, 0x09, 0x0b, 0x08, 0xc3, 0x1c, 0xed, 0xb9, 0xb1, 0xd2, 0xcb, 0xc4, 0xf6, 0xf8, 0xf0, 0xf6, 0xd6, 0x47, 0xa7, 0x21, 0x13, 0xf2, 0x5f, 0x34, 0xfb, 0xdf, 0x1c, 0xd0, 0x25, 0x93, 0xd3, 0x0c, 0x48, 0x41, 0xd1, 0xe6, 0x1e, 0x1b, 0x1d, 0x4e, 0xdb, 0xd9, 0x25, 0xfc, 0xe8, 0x2f, 0x17, 0xd6, 0x5b, 0x17, 0x0e, 0xd1, 0xcf, 0x60, 0x21, 0xf8, 0x30, 0x24, 0xe0, 0x00, 0x15, 0xc3, 0x2e, 0xe5, 0x4f, 0xb1, 0x1d, 0x1a, 0x1b, 0xed, 0xf8, 0xe0, 0xc7, 0x34, 0x16, 0xff, 0xe4, 0x1f, 0x03, 0xec, 0x09, 0xf5, 0x00, 0xd1, 0x1c, 0xe4, 0xf4, 0xfb, 0x09, 0xd3, 0x0b, 0x2a, 0x26, 0xe3, 0x2a, 0xd9, 0x57, 0x20, 0x68, 0x0e, 0xcf, 0x36, 0x38, 0x03, 0x0f, 0x01, 0x28, 0x33, 0xf1, 0x48, 0x0a, 0x47, 0x2b, 0xe1, 0x38, 0x58, 0xfc, 0xb8, 0xfc, 0x2a, 0xa8, 0x11, 0xfe, 0xf9, 0xed, 0xad, 0x2b, 0xef, 0xd4, 0x3b, 0xae, 0xf2, 0x2e, 0xe7, 0x0a, 0x28, 0xeb, 0x39, 0x0b, 0x1f, 0xe0, 0x04, 0xc6, 0xda, 0xbd, 0xd4, 0x28, 0x1a, 0x09, 0x18, 0xbc, 0xd8, 0x01, 0x23, 0xe0, 0xe6, 0xa8, 0xf0, 0x07, 0xa9, 0x45, 0xaf, 0xf8, 0x3a, 0xe1, 0xbb, 0xff, 0xfb, 0x18, 0x03, 0x03, 0xc8, 0xbd, 0xd8, 0xdc, 0x20, 0xe8, 0x0f, 0xe0, 0xd5, 0xe5, 0x0d, 0xf5, 0x0c, 0x19, 0xf6, 0xe2, 0x13, 0xf3, 0x1e, 0xe9, 0x28, 0xfb, 0x14, 0x0a, 0xe2, 0x2e, 0x3d, 0x0c, 0xce, 0xe1, 0xf6, 0xfe, 0x2e, 0x1f, 0x19, 0x03, 0x0d, 0xe8, 0x06, 0xe0, 0x0e, 0x40, 0x3f, 0x40, 0xfe, 0xce, 0x01, 0xd2, 0xbc, 0xda, 0x1f, 0x23, 0x01, 0x56, 0xeb, 0xd8, 0xcf, 0x04, 0x16, 0xee, 0x08, 0xe2, 0xd1, 0xd3, 0xe4, 0x2d, 0xbb, 0x3c, 0x2e, 0x26, 0xca, 0x1a, 0xf0, 0xcd, 0x42, 0xd4, 0x2b, 0xd2, 0x2b, 0x97, 0x25, 0x0d, 0xc0, 0xe8, 0x3e, 0xf7, 0x2d, 0xb0, 0x00, 0x39, 0xf3, 0xec, 0x2e, 0xe0, 0xe9, 0x31, 0x05, 0xd5, 0x2b, 0x17, 0x2e, 0x25, 0xe6, 0xf3, 0x0b, 0x00, 0x83, 0xeb, 0xd5, 0xd0, 0x0b, 0xef, 0x03, 0xf4, 0xef, 0xd5, 0xd9, 0x00, 0xf1, 0x1f, 0xe1, 0x27, 0x01, 0x24, 0x01, 0xc7, 0x0b, 0x21, 0xda, 0xcb, 0xda, 0x26, 0x0c, 0xee, 0xe9, 0x2d, 0xfc, 0xf8, 0x3e, 0xd1, 0xd5, 0x81, 0xf8, 0x90, 0xca, 0x04, 0xc0, 0x1d, 0x2f, 0x37, 0x1b, 0xba, 0xd5, 0x39, 0x01, 0xe1, 0x2f, 0x02, 0xbb, 0xf1, 0xd7, 0x1f, 0x22, 0x25, 0x1a, 0x25, 0x44, 0x01, 0x1c, 0xdf, 0x51, 0xda, 0xd1, 0xce, 0x21, 0x03, 0x29, 0x04, 0xda, 0xca, 0xea, 0xcf, 0x09, 0xce, 0x0c, 0x1b, 0xed, 0xe1, 0xd6, 0x19, 0xcc, 0x04, 0x18, 0xf7, 0xeb, 0xf1, 0x20, 0x2c, 0xf5, 0xc7, 0x28, 0xf2, 0xab, 0x1b, 0x03, 0x11, 0x06, 0xcb, 0x1a, 0xee, 0x37, 0xdc, 0xf6, 0xd7, 0x02, 0x0b, 0x24, 0xfe, 0x0e, 0x26, 0x2b, 0x35, 0x1a, 0x13, 0xf6, 0x02, 0x12, 0xe4, 0xfb, 0xc4, 0xc4, 0xf9, 0xe6, 0x33, 0xb5, 0x0a, 0x19, 0x9a, 0x08, 0x3c, 0x31, 0x20, 0x2a, 0xd2, 0x10, 0x97, 0xe1, 0xc0, 0xcf, 0xe8, 0x10, 0x25, 0xff, 0xfa, 0xd0, 0x12, 0x08, 0x0c, 0xd5, 0xdd, 0x29, 0xc9, 0x0f, 0xda, 0xf7, 0x0f, 0x5a, 0x0e, 0x22, 0xb4, 0x0b, 0xb9, 0x1a, 0xf1, 0x31, 0xd9, 0xfa, 0x06, 0xe8, 0xee, 0x08, 0xd6, 0xc6, 0xc0, 0x0a, 0x08, 0xd3, 0x23, 0xb4, 0xb0, 0x2e, 0xfe, 0xf6, 0x06, 0x04, 0xf5, 0xdf, 0x0c, 0xec, 0xf9, 0x27, 0xe7, 0x00, 0x09, 0xf4, 0x18, 0xda, 0xfd, 0x31, 0xba, 0x28, 0xfb, 0xf0, 0x22, 0xc5, 0x19, 0xf0, 0x1d, 0xd7, 0xf0, 0x1b, 0xe4, 0xed, 0xf3, 0x15, 0x00, 0x1c, 0x33, 0x08, 0xf2, 0xb6, 0x39, 0x35, 0xed, 0xd3, 0x39, 0xfc, 0x04, 0xf4, 0x05, 0x19, 0x27, 0xd9, 0xff, 0x1c, 0x31, 0x0b, 0x25, 0x09, 0x10, 0xd6, 0x02, 0x1c, 0x09, 0x0f, 0xd5, 0xe3, 0xe8, 0xe2, 0xf9, 0xd8, 0xd5, 0x5b, 0xb9, 0xdf, 0xaf, 0x9e, 0xf9, 0xd0, 0x96, 0xd7, 0x08, 0x86, 0x25, 0xcd, 0x95, 0x53, 0xd7, 0xb2, 0xdf, 0xab, 0xf9, 0x21, 0xa7, 0x2b, 0xfb, 0x13, 0xcf, 0xc5, 0x06, 0xa3, 0x04, 0xce, 0xd1, 0xda, 0xef, 0xef, 0xf7, 0xf2, 0xbe, 0x3b, 0xda, 0xaf, 0xc3, 0x1b, 0xcd, 0xbf, 0xcb, 0x3c, 0x29, 0xf5, 0xb3, 0x3e, 0x0d, 0xfb, 0x15, 0xf4, 0xf8, 0x34, 0x02, 0x02, 0x10, 0xce, 0xf2, 0x1a, 0xc1, 0x4a, 0xc9, 0xd9, 0xd6, 0x40, 0xb0, 0x1b, 0x04, 0x40, 0xc0, 0xb4, 0x4d, 0x81, 0x97, 0xcc, 0x49, 0x1d, 0xce, 0xb8, 0xec, 0x41, 0xd7, 0xce, 0x12, 0xca, 0x4d, 0xf1, 0xef, 0x15, 0x2d, 0x41, 0xd9, 0xff, 0xe6, 0xda, 0xec, 0xc2, 0xdc, 0x26, 0x10, 0x9f, 0x11, 0x1c, 0xd6, 0xf8, 0xa8, 0xb5, 0x1c, 0xf3, 0xd3, 0x05, 0xe6, 0xbe, 0xd0, 0xda, 0x46, 0x3e, 0x3c, 0x8a, 0x2b, 0xec, 0xbe, 0x3b, 0xa3, 0xf4, 0x14, 0xe4, 0xa1, 0xa4, 0x47, 0x35, 0xad, 0x43, 0xff, 0xc6, 0xec, 0xb9, 0x32, 0x29, 0x92, 0xdb, 0xe1, 0x9e, 0x9a, 0x49, 0x23, 0xe9, 0x19, 0x51, 0xd7, 0xe8, 0x0c, 0x02, 0xf1, 0xec, 0xbf, 0xbc, 0x06, 0x0c, 0x35, 0xe6, 0x23, 0xef, 0xa1, 0xcf, 0x0d, 0xf3, 0xd4, 0xec, 0xd9, 0x4d, 0xb1, 0x2c, 0xb8, 0xd2, 0x21, 0x1e, 0xcc, 0xe5, 0xc0, 0x04, 0x10, 0xd6, 0xe1, 0xaf, 0xa4, 0xe2, 0xf9, 0x40, 0x92, 0xec, 0xaf, 0xa8, 0xf2, 0xb1, 0xe7, 0x41, 0x38, 0x2b, 0x24, 0xb6, 0x26, 0x4e, 0xb4, 0x22, 0x0a, 0x02, 0xc3, 0x49, 0xef, 0xff, 0xfc, 0xb5, 0x06, 0xe8, 0xd0, 0x99, 0xf0, 0xcb, 0xa2, 0x1c, 0xe8, 0xa8, 0xdd, 0xd5, 0xc3, 0xdd, 0x13, 0x4a, 0x26, 0x21, 0xb8, 0x2b, 0x9d, 0xad, 0x95, 0xa1, 0xbc, 0x1b, 0xf4, 0xb7, 0xbd, 0xc9, 0xee, 0xd2, 0x22, 0xe8, 0x24, 0x98, 0xe8, 0x4c, 0xad, 0xfb, 0xdb, 0x49, 0xff, 0xc6, 0x3b, 0xca, 0x26, 0x98, 0xa9, 0xa0, 0xe2, 0x37, 0xcf, 0xcc, 0xcf, 0x0f, 0xda, 0x28, 0x40, 0xdb, 0x35, 0xc4, 0xa7, 0x22, 0x30, 0x9d, 0x3c, 0x90, 0xca, 0xd9, 0xa8, 0xf1, 0x38, 0x29, 0xdc, 0x12, 0x02, 0xe1, 0x2b, 0x25, 0x00, 0xfc, 0xc0, 0x15, 0xfa, 0xc8, 0x25, 0x00, 0xb0, 0xde, 0x1c, 0x13, 0xe0, 0xcc, 0xc1, 0xdb, 0x10, 0x28, 0xf9, 0x02, 0x0a, 0x04, 0xeb, 0x07, 0x07, 0xd5, 0xf0, 0x04, 0x26, 0x01, 0x2b, 0xfa, 0x02, 0x0a, 0x06, 0x19, 0x04, 0x10, 0x1b, 0x0f, 0x26, 0xe8, 0xfc, 0xeb, 0xe6, 0xfd, 0x2d, 0x13, 0x0d, 0x08, 0x24, 0x20, 0xdb, 0xf9, 0xca, 0xb5, 0x1c, 0xda, 0xe9, 0x0b, 0xc5, 0xfa, 0x19, 0x28, 0x02, 0xf1, 0x08, 0x0d, 0x0f, 0x0a, 0xe2, 0x18, 0x19, 0xd9, 0x3f, 0xe4, 0x23, 0x0d, 0x16, 0x1b, 0x0a, 0x0a, 0x01, 0xd2, 0xfb, 0xff, 0x20, 0xf2, 0x2e, 0xf0, 0xbf, 0x06, 0x22, 0xeb, 0x2b, 0xc9, 0x1c, 0xf3, 0xe0, 0xf7, 0xcf, 0x13, 0xfd, 0xf3, 0xee, 0xe3, 0xd6, 0xf0, 0xe7, 0xcc, 0xca, 0x12, 0xe0, 0x25, 0x0b, 0x07, 0xe4, 0x00, 0xe6, 0xf9, 0x14, 0x16, 0x0e, 0xfa, 0xed, 0xfc, 0x1f, 0xfa, 0x05, 0x11, 0xf3, 0xe7, 0x0a, 0xd9, 0xd6, 0x09, 0x10, 0xe3, 0x37, 0x1c, 0x0e, 0xdf, 0xcd, 0x0d, 0x00, 0x26, 0xda, 0xcf, 0xf0, 0x01, 0xee, 0x26, 0xdf, 0xfc, 0xc1, 0x12, 0x49, 0xf6, 0x0e, 0x15, 0x10, 0xd9, 0xca, 0xf3, 0x00, 0x13, 0x10, 0x03, 0xfe, 0xf6, 0x54, 0x1e, 0x08, 0x13, 0x3b, 0xf6, 0x22, 0xec, 0x07, 0x0f, 0xfe, 0xfd, 0x26, 0xef, 0x22, 0x12, 0xc8, 0x2b, 0xe9, 0xf8, 0x0f, 0x0b, 0xf4, 0x10, 0x0b, 0x25, 0xe4, 0xe7, 0x1b, 0x29, 0xba, 0x08, 0x11, 0xc5, 0x22, 0x06, 0x02, 0x0e, 0x0f, 0x1f, 0x27, 0x26, 0x0e, 0x29, 0xed, 0xce, 0xe8, 0xf6, 0x0f, 0x11, 0x12, 0xe7, 0x24, 0x13, 0xf5, 0x21, 0xf1, 0xf6, 0xf5, 0x11, 0x07, 0x1c, 0x10, 0x1e, 0x1d, 0xce, 0xe3, 0xdf, 0x00, 0x03, 0x02, 0xea, 0xf6, 0xff, 0x04, 0xe9, 0xd9, 0x08, 0x0a, 0xfd, 0x0c, 0xf0, 0x3c, 0xed, 0xfd, 0xf4, 0x06, 0xf7, 0x0b, 0xe0, 0xef, 0x20, 0x24, 0x26, 0x32, 0xe8, 0x1f, 0xed, 0x13, 0x24, 0xfb, 0xe9, 0x04, 0x0c, 0xee, 0x1e, 0xe4, 0x0a, 0x0e, 0x7f, 0x4f, 0x50, 0xf3, 0x69, 0xe3, 0x1d, 0x2a, 0xa5, 0xe8, 0x38, 0x30, 0x1a, 0xde, 0x0e, 0x03, 0x05, 0x04, 0x1d, 0x24, 0xa4, 0xf8, 0xa0, 0xcd, 0x0c, 0x02, 0x25, 0x2a, 0x16, 0x21, 0xed, 0xd8, 0xfe, 0x33, 0x04, 0x23, 0xa4, 0xf6, 0x36, 0x20, 0xed, 0x16, 0xda, 0x9e, 0x24, 0x17, 0xe0, 0x14, 0xef, 0xdc, 0x39, 0x2b, 0x09, 0x35, 0x02, 0x26, 0xf4, 0xf1, 0x23, 0xde, 0x03, 0xeb, 0xd7, 0x43, 0x4b, 0xdf, 0xff, 0x26, 0xea, 0x35, 0x0e, 0x07, 0xb1, 0xde, 0x23, 0xea, 0xbd, 0x43, 0xf8, 0xf6, 0x09, 0xc0, 0x19, 0xf0, 0xba, 0xc1, 0xcd, 0xee, 0xd1, 0x0c, 0xf1, 0xde, 0x33, 0x17, 0xe8, 0xe5, 0xd7, 0xbe, 0x05, 0xcc, 0x00, 0x3e, 0xdb, 0xee, 0x03, 0xf0, 0xee, 0x81, 0x1d, 0x22, 0xd4, 0xee, 0x1a, 0xfb, 0xe7, 0xc5, 0x44, 0x23, 0xf9, 0xfa, 0xc8, 0xec, 0xd0, 0xcf, 0xf0, 0xf0, 0xe1, 0xfc, 0x2c, 0xee, 0xf3, 0x30, 0x1a, 0xf2, 0xc6, 0x14, 0xf4, 0x00, 0xd5, 0x18, 0x09, 0x0f, 0x19, 0x20, 0xd3, 0xba, 0xc5, 0xd2, 0x18, 0x12, 0x10, 0xc9, 0x03, 0xfe, 0xee, 0xfe, 0x25, 0xce, 0xd6, 0xf6, 0x26, 0xcc, 0xbb, 0x18, 0xf8, 0x44, 0x16, 0xcb, 0xda, 0xc2, 0xf0, 0x6b, 0xc4, 0x50, 0xfd, 0xe6, 0xec, 0xfc, 0xaf, 0xdf, 0xe6, 0xf4, 0xfb, 0xdc, 0x2e, 0xe2, 0xfc, 0x22, 0x09, 0xfc, 0x19, 0x1b, 0x35, 0x1d, 0xd9, 0xb6, 0x38, 0x26, 0x0a, 0x14, 0x3e, 0xe1, 0xff, 0x18, 0x33, 0x9c, 0xf2, 0x03, 0x5b, 0x70, 0x4f, 0x21, 0x3c, 0x49, 0x4c, 0x2c, 0x1d, 0x1d, 0xdc, 0x0e, 0xea, 0x1e, 0x05, 0xf2, 0x14, 0xda, 0xbe, 0x16, 0x1c, 0xee, 0x06, 0xfd, 0x0d, 0xf4, 0xf6, 0xb2, 0xfb, 0x16, 0xf0, 0xfc, 0x2e, 0x21, 0xdd, 0x40, 0x31, 0xf2, 0x38, 0x73, 0xb8, 0xe0, 0xe5, 0xe9, 0x04, 0x37, 0xe2, 0xe1, 0xd0, 0x00, 0xec, 0x37, 0xfa, 0x9f, 0x3c, 0xe5, 0xcf, 0xdf, 0xd0, 0x2b, 0x2c, 0xe3, 0xd8, 0xf8, 0xff, 0x69, 0xec, 0xff, 0xbd, 0xdc, 0x31, 0x4d, 0xfd, 0xeb, 0x10, 0x0f, 0xf7, 0xd5, 0x2f, 0xca, 0xa1, 0xfb, 0x24, 0x4f, 0x19, 0x9d, 0x01, 0x02, 0x29, 0x13, 0xc5, 0x51, 0xb8, 0xfe, 0xf3, 0xbe, 0xe8, 0xe9, 0x10, 0xe9, 0xe8, 0x0b, 0x1e, 0xfe, 0x2b, 0xdc, 0xc3, 0x08, 0x27, 0xe1, 0xd2, 0xdf, 0x21, 0x28, 0x11, 0x4a, 0x19, 0xe2, 0x1b, 0xd3, 0xd3, 0xf1, 0xf8, 0x4a, 0xe0, 0x26, 0x45, 0x12, 0x08, 0x0d, 0xdf, 0x30, 0x01, 0x24, 0xe8, 0xb1, 0xdb, 0xe0, 0xde, 0x21, 0x20, 0xbc, 0xb5, 0xd3, 0x2b, 0xd4, 0x0e, 0x3c, 0xda, 0x2d, 0x19, 0xcd, 0xeb, 0x26, 0xcc, 0x23, 0x20, 0x47, 0x1f, 0x20, 0xfe, 0xf0, 0xd1, 0xeb, 0xd7, 0x0d, 0x09, 0x2b, 0x3f, 0x1b, 0xc9, 0xe9, 0xc8, 0xcf, 0xb6, 0x32, 0x45, 0xe5, 0xc2, 0x52, 0xb9, 0x18, 0xf6, 0xc0, 0xcc, 0x01, 0xc1, 0x0a, 0xda, 0x14, 0x31, 0xd4, 0x14, 0xef, 0x00, 0x8e, 0x3e, 0xd7, 0xd6, 0xef, 0xf9, 0x1f, 0xf0, 0xd0, 0xc7, 0xfd, 0xea, 0x0a, 0x0d, 0xd5, 0xe0, 0x58, 0xd1, 0x37, 0x18, 0x1e, 0xaf, 0x1c, 0x21, 0x5c, 0x26, 0x0e, 0x29, 0xe7, 0xfa, 0x38, 0x16, 0x81, 0x90, 0xe4, 0x04, 0x9f, 0xe0, 0xe2, 0xf4, 0x57, 0xe7, 0xdd, 0xf7, 0x0e, 0x13, 0xfb, 0x19, 0x69, 0xbf, 0x34, 0x29, 0x22, 0x0f, 0xe2, 0x17, 0xed, 0x36, 0xf2, 0x09, 0x03, 0x0e, 0x00, 0xf4, 0xc8, 0x19, 0x14, 0x1b, 0xd3, 0xfe, 0x1f, 0xdb, 0xea, 0x32, 0x1f, 0x18, 0x06, 0x54, 0xba, 0x0a, 0x1e, 0x48, 0xed, 0x21, 0xb8, 0x2e, 0xdf, 0x0b, 0x15, 0xdc, 0x4e, 0x1a, 0xc8, 0x18, 0xed, 0x12, 0x32, 0x53, 0x0e, 0xfe, 0x31, 0xdc, 0xde, 0x30, 0x0a, 0xe5, 0xc7, 0x3b, 0xdc, 0xce, 0x00, 0x40, 0x11, 0xda, 0xeb, 0x3f, 0xd6, 0x0d, 0x03, 0xe1, 0xae, 0xd7, 0x48, 0x16, 0xe5, 0x22, 0x22, 0x07, 0xd9, 0xa8, 0x20, 0xdc, 0xe5, 0x1e, 0xe1, 0x37, 0xd1, 0xe9, 0x04, 0xdd, 0x20, 0xa1, 0x0d, 0x1c, 0x52, 0x31, 0x0b, 0x06, 0x34, 0x14, 0xf0, 0x11, 0x3b, 0xf2, 0x14, 0x16, 0xf4, 0x13, 0x11, 0x07, 0xcc, 0x36, 0x3b, 0x08, 0x1f, 0x29, 0xd7, 0x0c, 0xce, 0x37, 0x22, 0xa9, 0xef, 0xfe, 0x10, 0x22, 0xc9, 0x28, 0xe1, 0xf8, 0xd2, 0x13, 0x1d, 0x38, 0xfe, 0x08, 0x0e, 0x20, 0xe3, 0xe3, 0x37, 0x02, 0x50, 0x3d, 0x2d, 0x58, 0x08, 0xcd, 0x29, 0x26, 0x1c, 0xf2, 0xef, 0x23, 0x40, 0x75, 0xf0, 0x12, 0xec, 0xd9, 0xef, 0x02, 0xda, 0xf9, 0x20, 0xd5, 0xf3, 0xed, 0x10, 0xf5, 0xd2, 0x63, 0xe8, 0xeb, 0x0c, 0xcf, 0x22, 0x47, 0x08, 0x2f, 0xf9, 0x34, 0xda, 0xfd, 0xcf, 0xfe, 0x16, 0x4b, 0xf5, 0xc5, 0xbd, 0x3d, 0xd8, 0xe3, 0x28, 0xf1, 0x19, 0xfd, 0xac, 0x13, 0x04, 0x1a, 0xed, 0x3e, 0x36, 0x25, 0xb8, 0xd3, 0xd6, 0x48, 0x29, 0xc7, 0xd8, 0xf7, 0xc6, 0x16, 0x0b, 0xed, 0x1a, 0x54, 0xe5, 0x24, 0x74, 0xfc, 0xf5, 0x09, 0xed, 0xd2, 0x02, 0x23, 0x87, 0x03, 0x49, 0xda, 0x26, 0x10, 0x27, 0xfa, 0x12, 0xf8, 0xf8, 0x0f, 0x25, 0x29, 0x1c, 0xe1, 0x22, 0x28, 0x15, 0x21, 0x1f, 0xc0, 0xe4, 0x37, 0xd4, 0x2f, 0xf8, 0xc1, 0xf2, 0xe6, 0xd5, 0xe5, 0xec, 0xc0, 0x29, 0xfc, 0xf1, 0xe2, 0xcd, 0xe4, 0x01, 0x21, 0xe7, 0xed, 0xb4, 0xf0, 0x0f, 0xf9, 0xe7, 0xe6, 0xc0, 0x37, 0x0d, 0x00, 0x29, 0xff, 0x31, 0xf3, 0x15, 0xf8, 0x1d, 0xe1, 0x18, 0x0f, 0xf8, 0x12, 0x7f, 0xff, 0x01, 0xaa, 0xd5, 0x9e, 0x16, 0x2d, 0xd2, 0xcc, 0xe7, 0xed, 0x35, 0xdb, 0xe3, 0xde, 0x0e, 0xea, 0xd8, 0x49, 0x03, 0x09, 0xe7, 0xc6, 0xc0, 0x04, 0xf1, 0xec, 0x09, 0xd5, 0xe8, 0x1b, 0xe7, 0xd0, 0x00, 0xc3, 0x1e, 0xdc, 0x47, 0xe7, 0xe0, 0xd4, 0xc3, 0x09, 0x0d, 0xf3, 0xcc, 0xe7, 0x1f, 0xfd, 0xef, 0x25, 0x14, 0xef, 0xf0, 0xcc, 0x23, 0xfc, 0x28, 0xfb, 0x1c, 0x2c, 0xc8, 0xfc, 0xec, 0x1f, 0x04, 0xcf, 0x07, 0xf2, 0x5e, 0x0b, 0x2a, 0x08, 0xd7, 0xb7, 0x0b, 0x09, 0xe7, 0x18, 0xf8, 0x3f, 0xed, 0x09, 0xbd, 0xe5, 0x4d, 0xf0, 0x97, 0x0a, 0xd2, 0x02, 0x1d, 0xbe, 0xc4, 0xea, 0x19, 0xee, 0xd7, 0x29, 0x29, 0x3d, 0x43, 0xea, 0xe3, 0xfa, 0x6a, 0x1e, 0x27, 0x21, 0x05, 0xdf, 0x36, 0x47, 0xd4, 0xb3, 0xe9, 0x1e, 0x05, 0xd2, 0x15, 0x08, 0xd8, 0xe2, 0xf7, 0x2a, 0xd8, 0xf6, 0x23, 0xeb, 0x2f, 0x1e, 0x3a, 0x09, 0xd5, 0xfd, 0xba, 0xf5, 0x07, 0xdf, 0xe5, 0x06, 0x2b, 0x37, 0x02, 0x5b, 0xea, 0xdd, 0x2d, 0x1e, 0x0a, 0xdf, 0x00, 0x0c, 0xd8, 0x77, 0xe2, 0xf5, 0xb0, 0xe3, 0x01, 0xfc, 0xcd, 0xee, 0x28, 0xd8, 0x41, 0xfa, 0x3b, 0x1f, 0x10, 0x01, 0x14, 0x0b, 0x3c, 0x0c, 0xec, 0x36, 0x07, 0xc6, 0xe6, 0xd5, 0x0c, 0xf9, 0xd6, 0xfe, 0xfd, 0x13, 0xf0, 0x01, 0xae, 0x01, 0xe8, 0xd7, 0x0f, 0xd7, 0xd0, 0xcb, 0x24, 0x2c, 0x28, 0x12, 0x4b, 0xe7, 0x0f, 0x42, 0xc3, 0xe9, 0x03, 0x22, 0x15, 0x20, 0x35, 0x1a, 0x9b, 0x13, 0x1c, 0x0a, 0x1c, 0x18, 0x20, 0x17, 0xe5, 0x1c, 0xd9, 0x0d, 0x18, 0x53, 0xe7, 0x24, 0xe0, 0xdc, 0xe3, 0x2e, 0x19, 0x09, 0x17, 0x14, 0xdd, 0x42, 0x23, 0xd1, 0xfc, 0x15, 0xea, 0xf8, 0xc9, 0x2a, 0xf0, 0x1d, 0xff, 0x34, 0x00, 0x1a, 0xea, 0x14, 0xa1, 0xdd, 0x0c, 0xd5, 0x2e, 0x20, 0xd9, 0x11, 0xfc, 0x03, 0xd9, 0xf6, 0xdc, 0xef, 0xd6, 0x09, 0xe3, 0xd3, 0x23, 0xa7, 0x2c, 0x17, 0x0a, 0x00, 0x2c, 0x03, 0x2d, 0xef, 0x0b, 0xd4, 0xda, 0xfc, 0xd5, 0xca, 0xda, 0xfb, 0x13, 0xda, 0x0e, 0xf6, 0xd8, 0x0b, 0xfc, 0xd1, 0x1d, 0x0e, 0xd7, 0x39, 0x03, 0xdf, 0x0f, 0xeb, 0x38, 0xf5, 0x07, 0xf1, 0xe8, 0x28, 0xd6, 0xcc, 0x35, 0x02, 0xe4, 0x1c, 0x28, 0x06, 0x37, 0xe1, 0xf2, 0x11, 0xcf, 0xfb, 0x4c, 0xcc, 0xb6, 0xff, 0x21, 0xf8, 0x31, 0x2c, 0xe6, 0x07, 0xdf, 0xfd, 0xda, 0x0c, 0xea, 0xed, 0xe6, 0xfd, 0x35, 0x19, 0xf7, 0x21, 0xfb, 0xe2, 0x03, 0xfa, 0x07, 0x1e, 0xce, 0xfb, 0xbe, 0x0d, 0x34, 0xb4, 0xa0, 0x17, 0x02, 0x08, 0x1a, 0xd6, 0xbd, 0x0b, 0xe2, 0x1b, 0xdc, 0xed, 0xcf, 0x28, 0x2c, 0xf7, 0xf1, 0xfa, 0xfb, 0xf4, 0xda, 0x0e, 0x0f, 0x1d, 0xe8, 0xf0, 0x0c, 0xd5, 0x3f, 0xdd, 0xce, 0x1f, 0x1b, 0xd4, 0x46, 0xfd, 0x35, 0xdb, 0x17, 0xf7, 0xb6, 0x7f, 0xfb, 0x08, 0x9f, 0x37, 0x94, 0x39, 0xe4, 0x06, 0xc5, 0xe6, 0x27, 0x34, 0xd2, 0x17, 0x27, 0xfd, 0xc2, 0x1c, 0xd1, 0xd1, 0xde, 0xe5, 0x19, 0xb3, 0x05, 0x18, 0x1c, 0x5d, 0x20, 0x1c, 0xeb, 0xdb, 0xed, 0xf7, 0xfd, 0xf0, 0x94, 0xec, 0xf3, 0xe1, 0x1f, 0x23, 0xd2, 0x0c, 0x19, 0xf8, 0x16, 0x4d, 0x1d, 0xdd, 0x26, 0xbd, 0xcf, 0xef, 0x40, 0x11, 0xe3, 0x14, 0xd6, 0xfc, 0xc5, 0x2e, 0xf6, 0x10, 0xfe, 0xc4, 0x81, 0x2d, 0xe4, 0x33, 0xed, 0x39, 0xd1, 0x3b, 0x1e, 0x18, 0xb1, 0x19, 0x15, 0xd2, 0x45, 0x10, 0x5f, 0x11, 0x38, 0x3f, 0x3b, 0x2a, 0xf5, 0x05, 0x20, 0xdb, 0x35, 0x35, 0xf0, 0x15, 0xf1, 0x1d, 0x19, 0xc2, 0xd4, 0x13, 0xee, 0xdb, 0xf1, 0xf4, 0x98, 0x39, 0xfb, 0x0c, 0xdb, 0xd2, 0x1e, 0xfe, 0x2b, 0x19, 0x10, 0xef, 0xbd, 0xdf, 0xe7, 0xbe, 0x25, 0x11, 0xf7, 0xd9, 0xe4, 0xdb, 0x36, 0x37, 0x9c, 0xbf, 0xc8, 0x31, 0xe0, 0xc5, 0x23, 0x0a, 0x44, 0x26, 0xdc, 0x11, 0x1b, 0x34, 0xb2, 0xf0, 0xd1, 0xf3, 0xdc, 0xd8, 0x2d, 0xf2, 0x1a, 0xce, 0xed, 0x28, 0xc2, 0x1a, 0x28, 0xb2, 0x24, 0x10, 0xa8, 0xff, 0x77, 0x16, 0x09, 0x2c, 0xd0, 0x01, 0xb7, 0x39, 0xcb, 0xf5, 0xec, 0xf8, 0xcd, 0x08, 0x4d, 0x16, 0xd4, 0x1c, 0x1e, 0x08, 0xd4, 0x15, 0xf8, 0x22, 0xe8, 0xea, 0x18, 0xbf, 0xee, 0xfd, 0x02, 0xf8, 0x24, 0x18, 0x35, 0x5b, 0xdf, 0x11, 0xad, 0xf6, 0x47, 0x0f, 0x29, 0xf6, 0xd9, 0xe4, 0xd0, 0x24, 0x05, 0x12, 0x86, 0x52, 0xda, 0x0b, 0x48, 0xed, 0x11, 0x37, 0xdd, 0xa0, 0xde, 0x1b, 0x11, 0xf6, 0xd5, 0x13, 0x27, 0xec, 0x01, 0xdd, 0x8b, 0x06, 0xfb, 0x09, 0x08, 0x20, 0xf3, 0xc9, 0x26, 0x3f, 0x0c, 0xd3, 0xe2, 0xf5, 0xe0, 0x10, 0x22, 0x25, 0x35, 0x15, 0x36, 0xb4, 0xdd, 0xd4, 0x88, 0xf7, 0x06, 0x15, 0x25, 0xee, 0x2d, 0x37, 0xdb, 0x00, 0xa5, 0x11, 0xfe, 0x00, 0xeb, 0x03, 0x32, 0xd5, 0x1d, 0xf5, 0x0f, 0xcf, 0xd6, 0xfd, 0x1a, 0xef, 0x17, 0xed, 0x1e, 0x6c, 0xe5, 0xff, 0x11, 0x18, 0x0b, 0x1e, 0x24, 0x09, 0x05, 0x14, 0x3b, 0xf1, 0x22, 0x0d, 0xfe, 0x3d, 0xfb, 0xf4, 0xd2, 0xf8, 0x0c, 0x15, 0xea, 0x23, 0x2b, 0x24, 0x0d, 0xf1, 0xf6, 0xf4, 0x27, 0x09, 0x08, 0x00, 0x11, 0x35, 0xcb, 0xed, 0xc5, 0x0f, 0x0c, 0x20, 0x76, 0x34, 0x1e, 0xfe, 0x17, 0x71, 0x17, 0xbc, 0x08, 0x11, 0x16, 0x00, 0x06, 0x17, 0xf0, 0xf5, 0xdf, 0x1d, 0xe4, 0x7c, 0x24, 0x0a, 0x2e, 0x29, 0xb7, 0x09, 0x04, 0x1f, 0xfc, 0xa8, 0xef, 0xfd, 0xee, 0x1c, 0x29, 0xdd, 0x1f, 0x32, 0xfd, 0xee, 0x28, 0x06, 0xda, 0x6a, 0xdf, 0x2b, 0xee, 0x09, 0x2f, 0xeb, 0x1a, 0x41, 0x3d, 0x2c, 0x30, 0xf9, 0x16, 0x05, 0xcf, 0x19, 0xfc, 0x0a, 0x2a, 0x0b, 0x1e, 0x33, 0xf4, 0x16, 0x2e, 0x12, 0xe9, 0x24, 0xbf, 0x1a, 0x3f, 0x0a, 0xf3, 0x02, 0x21, 0x12, 0x1a, 0x07, 0x2a, 0x11, 0x02, 0xcd, 0x26, 0xf8, 0xf5, 0xe3, 0x13, 0xf5, 0x16, 0xcd, 0x1c, 0x1e, 0x12, 0xea, 0xf7, 0x16, 0x2c, 0x1f, 0xea, 0x22, 0xd9, 0x11, 0xfd, 0xf7, 0x02, 0xe5, 0x27, 0x05, 0x27, 0x0a, 0x2a, 0xd6, 0xe3, 0x0a, 0x3c, 0x1a, 0xb3, 0xdb, 0xca, 0x2d, 0x2e, 0xd2, 0xdc, 0xf4, 0xce, 0xec, 0xff, 0xc6, 0x12, 0xfe, 0xf2, 0xdd, 0xd3, 0xdc, 0x2a, 0x0a, 0x0f, 0xe5, 0xf9, 0xd6, 0xe3, 0xfb, 0x25, 0x0e, 0x0d, 0xdf, 0x1b, 0x0d, 0xf5, 0xfe, 0x08, 0xdf, 0xf1, 0xd9, 0xd8, 0xcc, 0x4a, 0xc6, 0xc0, 0x20, 0xfa, 0x38, 0xd1, 0xdb, 0xb2, 0xde, 0x0b, 0x04, 0xf4, 0x1f, 0xde, 0x07, 0x00, 0x1a, 0xd5, 0x29, 0x1d, 0xbe, 0x0c, 0xd6, 0xbb, 0x21, 0xdb, 0x29, 0x12, 0xe4, 0xd3, 0xfd, 0xfb, 0xff, 0xe3, 0x09, 0xf5, 0x01, 0xf9, 0xd2, 0xe2, 0x22, 0x1e, 0xea, 0xcd, 0x02, 0xf3, 0xe9, 0xc8, 0x0e, 0x01, 0x11, 0xcd, 0xb7, 0x31, 0x0f, 0xda, 0xf3, 0x13, 0xf7, 0x19, 0xf7, 0x19, 0xfc, 0xfc, 0xe0, 0xcd, 0x32, 0x2c, 0xe5, 0xdb, 0x0d, 0xc6, 0x06, 0xe4, 0xf9, 0xfa, 0x08, 0x0a, 0xf2, 0x2d, 0x13, 0xd1, 0xca, 0xcf, 0x81, 0xde, 0xe3, 0x42, 0x1b, 0xd3, 0x11, 0xeb, 0xb9, 0x31, 0x0f, 0x52, 0x10, 0x02, 0x01, 0x0f, 0xf3, 0xfb, 0x09, 0x20, 0xb5, 0xf3, 0xf1, 0xb2, 0x1c, 0x01, 0xfd, 0x3c, 0x04, 0xd4, 0xd0, 0x09, 0xe5, 0x09, 0x28, 0xec, 0xdf, 0x29, 0x11, 0x1f, 0xe9, 0x24, 0x07, 0xb2, 0x31, 0xf0, 0xdd, 0xe8, 0x0e, 0xf5, 0xc8, 0x07, 0xd1, 0x28, 0xf5, 0xae, 0x1b, 0xe2, 0xf5, 0xc9, 0x20, 0xe7, 0x29, 0x2d, 0x19, 0x35, 0x22, 0x38, 0x0f, 0xee, 0x00, 0x16, 0x81, 0xfa, 0x0d, 0x3b, 0x2b, 0x0d, 0xfe, 0x42, 0xb8, 0xe0, 0xf9, 0xf1, 0xe3, 0x16, 0xcf, 0xc4, 0x42, 0x18, 0xf7, 0x2b, 0x3f, 0x2a, 0xd2, 0x2b, 0x27, 0xe6, 0x21, 0x0c, 0x20, 0x14, 0xfe, 0xe2, 0xbb, 0xdb, 0xdd, 0x56, 0x05, 0x07, 0x07, 0xdb, 0x46, 0x1c, 0x17, 0x89, 0x06, 0xee, 0xec, 0xca, 0x01, 0x1d, 0x0f, 0x19, 0x1a, 0xdf, 0x1b, 0xe3, 0x00, 0x2a, 0xf6, 0x0e, 0x13, 0x05, 0x08, 0x0d, 0xd0, 0x0e, 0xd9, 0x03, 0xd3, 0x00, 0x0d, 0x21, 0xd9, 0xe0, 0xee, 0x00, 0xe2, 0x21, 0xd6, 0xf1, 0x0c, 0xe5, 0xe8, 0xdf, 0x14, 0xdf, 0xe4, 0x22, 0xed, 0x00, 0x22, 0x2e, 0xc8, 0xb0, 0x2b, 0x06, 0xf2, 0xf3, 0x1d, 0x0f, 0xfb, 0x04, 0xc5, 0x33, 0x28, 0xeb, 0xe8, 0x94, 0x20, 0x13, 0xe6, 0x23, 0x20, 0xfc, 0x0a, 0xe3, 0x0b, 0xee, 0xdf, 0xe7, 0xc1, 0x00, 0xf9, 0xfb, 0x16, 0xdc, 0x20, 0x01, 0x15, 0xdc, 0xf0, 0x31, 0xf7, 0x10, 0xe0, 0x05, 0x01, 0x15, 0x17, 0xb2, 0x19, 0xde, 0x46, 0x02, 0xe7, 0x36, 0xcb, 0xdf, 0x0c, 0xbf, 0xcb, 0xda, 0x2e, 0x16, 0x1d, 0x17, 0xfa, 0xda, 0xf2, 0x18, 0x06, 0x17, 0xdb, 0x32, 0x00, 0xed, 0x26, 0x14, 0x24, 0x0f, 0x32, 0xf5, 0xd7, 0xfe, 0xe5, 0xd5, 0x07, 0x2a, 0xf3, 0xe3, 0xe2, 0x0e, 0xd5, 0xe4, 0x0d, 0xf1, 0xea, 0xff, 0x05, 0x0c, 0x17, 0xea, 0xf2, 0xda, 0x25, 0xfa, 0x34, 0xc8, 0xf0, 0x01, 0xe5, 0x44, 0x21, 0xaa, 0xda, 0xe1, 0x2b, 0xdc, 0x2f, 0xca, 0x28, 0x0f, 0x18, 0x06, 0x26, 0x14, 0xd3, 0x35, 0xff, 0xbe, 0xe1, 0x51, 0xf5, 0x37, 0xd9, 0x56, 0xc6, 0xff, 0x04, 0xd9, 0x4f, 0x05, 0xb1, 0x06, 0x59, 0xe3, 0xce, 0xa4, 0xf8, 0xf1, 0xc6, 0xac, 0xbb, 0x8a, 0xf3, 0x54, 0xd7, 0x9d, 0x55, 0xad, 0xd2, 0x0b, 0x84, 0x52, 0x05, 0x30, 0xf8, 0xba, 0xb7, 0x2c, 0x18, 0x82, 0xf0, 0xf3, 0xd8, 0xb7, 0x95, 0xc2, 0xd6, 0x3e, 0x28, 0xa1, 0x14, 0xd1, 0x6e, 0xca, 0xcc, 0xf2, 0x07, 0xbb, 0x3c, 0x28, 0xf5, 0xc8, 0x45, 0x56, 0xa7, 0xf9, 0xfa, 0xde, 0x9e, 0xe1, 0xc7, 0xfe, 0xd7, 0xff, 0xe3, 0x04, 0x26, 0xeb, 0x39, 0xfb, 0xcd, 0x0f, 0x0a, 0xac, 0x09, 0x5b, 0x3a, 0xcb, 0x1e, 0x12, 0xdf, 0x10, 0xa9, 0xf9, 0xbb, 0xb7, 0xb5, 0xf7, 0xdf, 0xf5, 0xaa, 0xd4, 0xcc, 0xa1, 0x3c, 0xbd, 0xc2, 0xba, 0x6c, 0x43, 0x31, 0xcc, 0x57, 0x05, 0x3b, 0xee, 0x41, 0xe3, 0x33, 0xa3, 0x6e, 0x1d, 0x1f, 0x21, 0x48, 0xd1, 0xba, 0xfc, 0x8e, 0xe8, 0xb9, 0x49, 0xe7, 0xe5, 0x8d, 0xe7, 0x30, 0x21, 0x27, 0x2a, 0x3a, 0x17, 0x0c, 0xbe, 0xba, 0x2d, 0x48, 0xa4, 0x04, 0xa9, 0x07, 0xd6, 0xf8, 0xd2, 0xb5, 0x12, 0x88, 0xec, 0x81, 0xac, 0x9c, 0x95, 0x29, 0x3e, 0xa8, 0xa4, 0xb1, 0x4b, 0x65, 0x08, 0xb3, 0xa3, 0xea, 0xd8, 0xdb, 0x93, 0x15, 0x10, 0xaa, 0x17, 0xc6, 0xb5, 0xb5, 0xe4, 0x20, 0x9d, 0xb4, 0xba, 0x84, 0xf0, 0xef, 0x46, 0xea, 0xa3, 0x49, 0xfd, 0x39, 0xa0, 0xae, 0xa7, 0x43, 0xea, 0xa4, 0x29, 0xd6, 0xad, 0xbd, 0xc9, 0x9c, 0x94, 0x8b, 0x9f, 0x97, 0x17, 0xfa, 0xf7, 0xd1, 0xa3, 0xca, 0x91, 0x21, 0x40, 0xc6, 0x45, 0x19, 0x8c, 0xd5, 0x29, 0xab, 0xa4, 0x11, 0x49, 0x0c, 0xd1, 0x50, 0xf5, 0x38, 0xf4, 0x02, 0xc8, 0x0f, 0xe9, 0x29, 0x0a, 0xe8, 0xde, 0x00, 0x88, 0x4c, 0x46, 0x0a, 0x49, 0x40, 0xef, 0xe0, 0xf4, 0xc9, 0x0e, 0xad, 0x4e, 0xae, 0x2f, 0x8d, 0xf2, 0x30, 0xeb, 0x18, 0x50, 0x34, 0x31, 0x00, 0xc7, 0x2a, 0x0b, 0x53, 0x5f, 0xfd, 0xe0, 0xc5, 0xee, 0xcc, 0x3b, 0x10, 0xf5, 0x1e, 0x32, 0xca, 0x10, 0x33, 0xe4, 0xcb, 0xf9, 0x16, 0x15, 0x28, 0x11, 0xfc, 0x1d, 0x78, 0x21, 0x26, 0xc4, 0x0c, 0x0e, 0xf8, 0x21, 0x10, 0x10, 0xfb, 0xfb, 0xdf, 0xf9, 0x05, 0x24, 0x46, 0xf5, 0xf5, 0xcc, 0x14, 0x0e, 0x11, 0x26, 0xe3, 0x0e, 0x11, 0xd7, 0xf8, 0xb4, 0x1f, 0xe8, 0x01, 0x1b, 0x00, 0xf8, 0x11, 0xdf, 0x2a, 0x2b, 0xf2, 0xd3, 0x17, 0xc7, 0xd1, 0x04, 0x25, 0xda, 0x08, 0x1b, 0x10, 0xe2, 0x46, 0xca, 0xf8, 0xd9, 0xde, 0xe3, 0xe4, 0x12, 0x1d, 0xf7, 0xf1, 0xe8, 0xf9, 0xf2, 0x14, 0x17, 0x01, 0x01, 0x0d, 0x3b, 0x0f, 0xda, 0xea, 0xf3, 0xfa, 0xda, 0xe2, 0x18, 0xd6, 0xe2, 0xf4, 0xe3, 0x23, 0x0c, 0xf0, 0x2d, 0xbd, 0x23, 0xd9, 0xf9, 0xf9, 0x2f, 0xf5, 0x15, 0xd6, 0xfd, 0x03, 0x06, 0xea, 0x22, 0xec, 0xf8, 0xf6, 0xd3, 0xec, 0x02, 0x03, 0xe0, 0x01, 0xe9, 0x49, 0xd6, 0x0b, 0x15, 0xf6, 0xfd, 0xcf, 0x19, 0x32, 0x2c, 0xf8, 0xec, 0xe7, 0x36, 0x22, 0xea, 0x28, 0x00, 0xf0, 0x27, 0x10, 0x00, 0x3e, 0x02, 0xf8, 0xf4, 0xe4, 0x21, 0xe3, 0xe6, 0x3c, 0x29, 0xfe, 0x0c, 0x29, 0xfe, 0xe7, 0xcb, 0x15, 0xd9, 0x08, 0x2c, 0xdb, 0x01, 0x04, 0x3c, 0x06, 0xe3, 0xfa, 0xe4, 0xf0, 0x31, 0xfd, 0x11, 0xe3, 0x0d, 0xf7, 0x00, 0xfe, 0xd8, 0x1b, 0xf7, 0x24, 0x12, 0x53, 0x04, 0x1b, 0x11, 0xc5, 0xe2, 0x1b, 0x16, 0x5f, 0x22, 0x12, 0xc2, 0xfb, 0xd3, 0xf4, 0x28, 0x10, 0xd9, 0x08, 0x03, 0xf7, 0x04, 0xf6, 0x81, 0x2e, 0xea, 0xf9, 0xff, 0xdb, 0xce, 0x2a, 0x17, 0x46, 0xff, 0x25, 0xd9, 0xcf, 0x3a, 0xd4, 0xf8, 0x04, 0xd3, 0x22, 0x04, 0x04, 0xfa, 0x29, 0x0d, 0xeb, 0x26, 0xe6, 0xec, 0xdc, 0xea, 0xfe, 0xd9, 0x1d, 0xf3, 0xf9, 0x29, 0x05, 0x0f, 0x1d, 0xf9, 0x24, 0x0b, 0x01, 0xe5, 0xcf, 0x08, 0x0a, 0xde, 0x5f, 0xda, 0xe9, 0x11, 0x1d, 0xf6, 0x21, 0x1a, 0xcf, 0xf2, 0xce, 0x47, 0x2c, 0x05, 0xbd, 0xbb, 0x02, 0xd6, 0x01, 0xf1, 0x18, 0xf3, 0x0e, 0xd7, 0xe4, 0xd9, 0x04, 0xc8, 0xda, 0x22, 0x1f, 0xc1, 0x58, 0x0e, 0xa9, 0x60, 0xe5, 0xe6, 0x0d, 0x0e, 0xf7, 0x2e, 0xef, 0xf3, 0xb6, 0xde, 0x01, 0x5c, 0xfe, 0xfe, 0x06, 0x15, 0xcc, 0x15, 0xfe, 0x02, 0x1d, 0xd9, 0xd7, 0x0d, 0x34, 0xd0, 0xde, 0x00, 0xeb, 0xd1, 0x2a, 0xfb, 0xd3, 0xe1, 0xed, 0x1b, 0x1d, 0x1a, 0x41, 0xdd, 0x0e, 0xfb, 0x4d, 0x45, 0xd0, 0x01, 0x23, 0xf2, 0x0e, 0x0c, 0xe5, 0x14, 0xb6, 0x10, 0x07, 0x18, 0xe3, 0xe0, 0x08, 0x06, 0xed, 0xcc, 0xc3, 0x01, 0xcb, 0xd2, 0xd3, 0x0c, 0xec, 0x0a, 0xbd, 0xc4, 0x05, 0x14, 0xda, 0xe5, 0x06, 0x32, 0x11, 0x0b, 0xfb, 0xbe, 0xe0, 0xd7, 0xb5, 0x1a, 0x09, 0x22, 0x23, 0x34, 0xd1, 0xd2, 0x3f, 0xee, 0xee, 0x28, 0xa7, 0x1d, 0x15, 0xd7, 0x2f, 0xbf, 0xb5, 0x4c, 0xe6, 0xfa, 0xe2, 0x31, 0x98, 0xfa, 0xd7, 0xcf, 0xed, 0xab, 0x36, 0x46, 0x2e, 0xcc, 0xe0, 0xf4, 0xe2, 0x68, 0xc9, 0x02, 0x04, 0x02, 0xba, 0x10, 0xd9, 0x06, 0x0c, 0xd3, 0x07, 0xdd, 0x1e, 0xb9, 0xb2, 0x34, 0xa0, 0xab, 0xab, 0x10, 0xd3, 0x28, 0xf0, 0xe9, 0xed, 0xee, 0x43, 0xcc, 0xdb, 0xf8, 0x13, 0xdf, 0x23, 0xc7, 0xc2, 0xdb, 0x0e, 0x17, 0x1f, 0x04, 0xed, 0xe6, 0xfe, 0xc2, 0xfb, 0xd0, 0xc4, 0x17, 0x11, 0xeb, 0xe5, 0x00, 0xeb, 0x0f, 0xba, 0xe9, 0x37, 0xf1, 0xf9, 0x11, 0x13, 0xd8, 0x1d, 0x0d, 0x26, 0xdd, 0xe0, 0x23, 0xf6, 0xdc, 0x09, 0xff, 0xe2, 0xd4, 0x1c, 0x22, 0xf2, 0x0e, 0x15, 0xfc, 0x2c, 0x30, 0xda, 0xfd, 0xbc, 0xf1, 0x15, 0xeb, 0xf5, 0xf3, 0xe4, 0x91, 0xe5, 0x63, 0xd3, 0x04, 0xd7, 0xdf, 0x01, 0x21, 0x81, 0xfb, 0x11, 0x49, 0x0f, 0xac, 0x0e, 0xca, 0xdd, 0xd1, 0xc4, 0xc5, 0xf9, 0xe3, 0xec, 0x05, 0x4d, 0xeb, 0x04, 0xe0, 0xe7, 0xf6, 0x02, 0xcb, 0xfb, 0xed, 0xea, 0xcd, 0xe3, 0xf1, 0xce, 0xe9, 0xf3, 0xb8, 0xd5, 0xef, 0x25, 0x2e, 0xcb, 0xf2, 0x95, 0x01, 0xf9, 0xb0, 0xef, 0xcd, 0xb9, 0xdd, 0xfd, 0xfb, 0xbb, 0xc5, 0x0b, 0x0d, 0x17, 0xfd, 0x1f, 0xf4, 0x04, 0xea, 0x20, 0xf2, 0xee, 0xf3, 0xf2, 0x14, 0xcd, 0xe5, 0xfb, 0x2f, 0x30, 0xc0, 0xc6, 0xd1, 0xe4, 0xf6, 0xc3, 0xf6, 0x0a, 0xf5, 0xef, 0xf1, 0x35, 0xf1, 0xde, 0xea, 0x77, 0xf6, 0x4d, 0x3f, 0xc4, 0xf0, 0xff, 0xfe, 0x29, 0xe5, 0xe5, 0xcd, 0x18, 0x2b, 0x06, 0xf7, 0xe5, 0x46, 0xd4, 0x9c, 0xda, 0xed, 0x0f, 0xb9, 0x32, 0x0d, 0xfb, 0x28, 0xc8, 0xc1, 0xf5, 0x04, 0x1e, 0x44, 0x2c, 0x35, 0x39, 0xcd, 0xdf, 0x15, 0x48, 0xf1, 0x0a, 0x09, 0x1e, 0xd1, 0xea, 0x22, 0x09, 0xf6, 0x60, 0x26, 0x5d, 0x50, 0x1d, 0x13, 0xf7, 0x25, 0x11, 0x33, 0x33, 0x1d, 0xec, 0x54, 0x02, 0xf9, 0xd8, 0x07, 0x0b, 0x14, 0x15, 0x03, 0x0c, 0x0c, 0xba, 0x03, 0xc4, 0x54, 0xf2, 0xfa, 0xe2, 0xad, 0xc6, 0xe9, 0x1f, 0xe4, 0xeb, 0xda, 0x17, 0x28, 0xe4, 0x13, 0x17, 0xea, 0xeb, 0xdc, 0x15, 0xff, 0x06, 0xf4, 0xfa, 0xf3, 0x27, 0xf5, 0x1b, 0xe6, 0xdf, 0x81, 0xee, 0xb8, 0xfd, 0x29, 0x1a, 0xd0, 0xf9, 0xae, 0xd9, 0xcb, 0xf6, 0xef, 0x3b, 0xd6, 0x06, 0xc6, 0xc4, 0xc7, 0xb3, 0x16, 0xde, 0xf2, 0x36, 0xd3, 0x15, 0xc9, 0xf4, 0xf1, 0x06, 0x07, 0xfa, 0x16, 0xe3, 0x23, 0x03, 0x3f, 0x4a, 0xeb, 0x4b, 0x9c, 0xe9, 0xcc, 0x3a, 0x2f, 0x11, 0xd3, 0x2a, 0x1d, 0xf3, 0x0d, 0x01, 0x02, 0x2f, 0xfe, 0xff, 0x12, 0xd1, 0x1c, 0xf4, 0xc9, 0xe5, 0x1e, 0x27, 0x0b, 0x2e, 0xd6, 0x17, 0xf5, 0xff, 0x46, 0xe0, 0x1a, 0x49, 0xee, 0x07, 0x13, 0xc0, 0x31, 0xd4, 0xcc, 0xe3, 0x2e, 0xee, 0x00, 0xf8, 0x15, 0x26, 0x1d, 0xa6, 0xe7, 0xcc, 0xc9, 0xde, 0xe5, 0xe5, 0xe2, 0xcf, 0xc4, 0xe2, 0xf5, 0x01, 0x9a, 0xd1, 0xea, 0xf6, 0xe4, 0xf0, 0xd4, 0xc7, 0x1c, 0xe6, 0x2c, 0x12, 0xb5, 0xf1, 0xd8, 0x28, 0x1e, 0xd3, 0xc6, 0xee, 0x49, 0x11, 0xf1, 0x26, 0x39, 0xcb, 0x10, 0xb3, 0x97, 0xe6, 0xd1, 0x34, 0x92, 0xac, 0xb1, 0xe0, 0x1f, 0xc8, 0xd4, 0xa0, 0xe1, 0x1f, 0xe8, 0xde, 0xf3, 0xf6, 0xdc, 0x0c, 0xe8, 0x12, 0xe1, 0xd4, 0xff, 0xff, 0x16, 0x2a, 0xe3, 0xd5, 0x28, 0xef, 0x2f, 0xf7, 0x0f, 0x01, 0x4b, 0xdc, 0xfd, 0xe4, 0x1b, 0x36, 0x13, 0x20, 0xfd, 0xcf, 0xcf, 0xf5, 0xda, 0x46, 0x2f, 0xb3, 0xd4, 0xf8, 0x0c, 0xf9, 0xfa, 0xd6, 0x30, 0x10, 0x25, 0x1d, 0x0b, 0xd8, 0x01, 0xed, 0x0d, 0xd0, 0xd9, 0xd9, 0x28, 0x32, 0xc8, 0x34, 0x03, 0x00, 0x09, 0xce, 0x03, 0x1e, 0x2a, 0x03, 0x12, 0xcb, 0x10, 0x1b, 0xb7, 0x28, 0xd5, 0xdc, 0xe9, 0x27, 0x1b, 0xef, 0xea, 0x09, 0xec, 0xbc, 0xd1, 0xe2, 0xfd, 0x0d, 0x67, 0x30, 0x10, 0xe7, 0x08, 0xa8, 0x32, 0x30, 0xf6, 0xea, 0xf8, 0x2f, 0xd9, 0xf0, 0x24, 0x04, 0x8b, 0x29, 0x18, 0xf8, 0x1e, 0xd8, 0x22, 0x1d, 0x0e, 0x2f, 0xbf, 0xe7, 0xe0, 0x24, 0xc4, 0x1e, 0xbe, 0x11, 0xb5, 0xef, 0x09, 0xf9, 0xfb, 0x2d, 0x23, 0xfb, 0x0d, 0xf8, 0x26, 0x1e, 0x15, 0xef, 0x44, 0x13, 0x1b, 0xca, 0x28, 0x1d, 0x15, 0xce, 0x12, 0x2e, 0x43, 0xef, 0x02, 0xd7, 0x56, 0xe8, 0x30, 0xdc, 0x09, 0x06, 0xd5, 0x2b, 0xe9, 0xe8, 0x2a, 0x01, 0xf4, 0xf8, 0x3a, 0xff, 0x0c, 0xd1, 0x02, 0x2e, 0x09, 0x28, 0xc8, 0xec, 0xe2, 0x34, 0xe7, 0x11, 0xfa, 0x1a, 0x02, 0xfe, 0x23, 0x2d, 0xf9, 0xfa, 0x15, 0xe2, 0xc7, 0x12, 0x26, 0xd8, 0xe9, 0x06, 0x23, 0x18, 0x10, 0x60, 0x24, 0xe5, 0xaf, 0xf3, 0x81, 0x04, 0xca, 0xf0, 0x25, 0x15, 0x1f, 0x1e, 0xc1, 0x0e, 0xdc, 0x2e, 0xb5, 0xed, 0xa8, 0x52, 0x2b, 0xc0, 0x8f, 0x36, 0xfb, 0x33, 0xe9, 0x2e, 0x01, 0x2a, 0xea, 0x27, 0xda, 0xd5, 0xec, 0x34, 0x3a, 0x12, 0x31, 0xd4, 0xdd, 0xef, 0x31, 0xe5, 0x9c, 0x28, 0x24, 0x07, 0xb9, 0xf0, 0x04, 0x0e, 0xd0, 0xd6, 0x27, 0xca, 0xf5, 0xc8, 0x00, 0xd7, 0x27, 0xf9, 0xd5, 0xc5, 0x33, 0x11, 0xe0, 0xfe, 0x4a, 0x23, 0xe7, 0x18, 0x30, 0x07, 0xf1, 0x20, 0xcc, 0xbd, 0xfb, 0xc5, 0xe8, 0xf3, 0xbf, 0xeb, 0xf8, 0x23, 0xeb, 0x07, 0xf1, 0xe6, 0xf1, 0x29, 0xd1, 0x21, 0xf6, 0x08, 0x1f, 0xfd, 0x73, 0xba, 0x21, 0x2e, 0xe9, 0xd2, 0x05, 0xc7, 0x07, 0xfc, 0x1c, 0x17, 0xee, 0x33, 0xea, 0xea, 0x49, 0xe4, 0x13, 0xfe, 0x2b, 0x1f, 0x30, 0x00, 0xce, 0xb6, 0x0b, 0xd4, 0x23, 0x4b, 0xbc, 0xef, 0xfa, 0x08, 0x1a, 0x0b, 0x27, 0x1f, 0x29, 0xc8, 0xb9, 0x02, 0xc7, 0xe0, 0xcb, 0x26, 0x61, 0xe3, 0xb3, 0xd7, 0x32, 0x4a, 0x14, 0xef, 0x1c, 0x12, 0xe0, 0xee, 0x19, 0x1d, 0x12, 0xdb, 0xe7, 0x07, 0xc6, 0x54, 0xb8, 0xfa, 0xf7, 0xc9, 0x27, 0x2f, 0x17, 0xee, 0x1c, 0xec, 0x0f, 0x4b, 0xe6, 0xf9, 0x13, 0x13, 0xdf, 0x1f, 0xf0, 0xd0, 0x22, 0xea, 0xf1, 0x49, 0xe0, 0x1e, 0xed, 0x41, 0xd5, 0xe0, 0x7f, 0xe5, 0x09, 0xe2, 0x1a, 0xfb, 0x1f, 0xcf, 0x2c, 0xed, 0x47, 0xdf, 0x0d, 0x3f, 0x42, 0xe6, 0x48, 0x1f, 0xc8, 0xf2, 0xfd, 0x29, 0x10, 0x2a, 0xf4, 0xff, 0x01, 0xf1, 0x0e, 0x19, 0x15, 0xf4, 0x2d, 0xe9, 0x04, 0xb6, 0xe1, 0x2f, 0xe4, 0x06, 0x66, 0x06, 0x23, 0xe4, 0x2a, 0xcc, 0xe9, 0x28, 0x35, 0xb9, 0xed, 0x26, 0xbe, 0x0b, 0xd6, 0x00, 0xfe, 0x10, 0x13, 0x72, 0x37, 0x41, 0xf4, 0xcc, 0xed, 0xe4, 0x36, 0xdb, 0x03, 0x1d, 0x39, 0x21, 0xd1, 0x13, 0x41, 0x08, 0xd3, 0x18, 0x08, 0xfc, 0xfa, 0x01, 0x10, 0x19, 0xfa, 0x06, 0xf3, 0xc7, 0x12, 0xea, 0xbb, 0xf7, 0x34, 0x2c, 0xd5, 0xce, 0xee, 0x2c, 0xf2, 0x1f, 0xf2, 0x26, 0xfc, 0x0d, 0xfc, 0xe1, 0x29, 0x07, 0xf6, 0xc3, 0xd3, 0xac, 0x21, 0xc3, 0xe7, 0xe8, 0xf9, 0x23, 0xbf, 0xff, 0xc2, 0x17, 0xe9, 0x0d, 0xd1, 0x9d, 0x0a, 0x2d, 0x21, 0xd2, 0x2a, 0x24, 0xdd, 0xf8, 0xff, 0xf9, 0x9a, 0x33, 0x40, 0xf8, 0xea, 0x12, 0xc5, 0xbe, 0x04, 0xf6, 0xdd, 0x09, 0xbc, 0xf6, 0xc1, 0x41, 0x0f, 0x20, 0xd9, 0xf1, 0xd8, 0xbe, 0xe3, 0xea, 0xff, 0xff, 0xb0, 0xc1, 0x12, 0x07, 0xfd, 0x1b, 0xe5, 0x34, 0xe7, 0x49, 0x3a, 0xf0, 0x00, 0x1c, 0xfe, 0x41, 0x28, 0x20, 0x82, 0x2c, 0xba, 0xed, 0x35, 0xef, 0xe8, 0xf9, 0x1b, 0x95, 0x27, 0x31, 0x06, 0xfa, 0xb4, 0x32, 0x37, 0x01, 0x1b, 0xde, 0x7f, 0x1c, 0xe2, 0x1a, 0x27, 0xe9, 0xb7, 0xf3, 0xbb, 0xae, 0x28, 0xf4, 0x10, 0xc5, 0xc2, 0x32, 0x06, 0x0f, 0xc1, 0xf8, 0xe3, 0xfb, 0x05, 0x25, 0x0a, 0xb2, 0xcf, 0xf8, 0x2c, 0xb1, 0x34, 0xd4, 0x0f, 0x25, 0x13, 0xbe, 0xe7, 0x00, 0xc2, 0xdd, 0x06, 0x16, 0x2a, 0xae, 0x0b, 0xb1, 0xda, 0xe6, 0xfc, 0xc5, 0xf8, 0xec, 0x04, 0xcf, 0x1a, 0xee, 0x75, 0x28, 0x50, 0x13, 0xdf, 0x11, 0x1c, 0xf8, 0xbb, 0x23, 0x47, 0x31, 0xde, 0xa7, 0x0a, 0x0a, 0x03, 0x20, 0xf0, 0xc6, 0xfc, 0xfe, 0x11, 0x1f, 0x28, 0x12, 0xbc, 0xe5, 0x07, 0xf5, 0x22, 0x02, 0x34, 0xc1, 0x0e, 0x00, 0xf4, 0x3e, 0xcd, 0x1c, 0x3a, 0x1e, 0x11, 0xd9, 0x16, 0xee, 0xf6, 0xfa, 0x8d, 0xec, 0x24, 0xf8, 0xdf, 0x10, 0x0d, 0x30, 0xec, 0xea, 0xdf, 0x1a, 0xcc, 0x39, 0x18, 0x26, 0xc8, 0xf5, 0x06, 0xdb, 0x2c, 0xd0, 0xf4, 0xef, 0x20, 0xcd, 0xe3, 0xc0, 0x14, 0xe3, 0xe0, 0xbe, 0x11, 0xe3, 0x15, 0xac, 0xdd, 0x1a, 0x0d, 0xf8, 0xea, 0xe6, 0x10, 0xd7, 0xd0, 0xde, 0xf0, 0xf2, 0x2b, 0xf8, 0x46, 0x22, 0xc9, 0xfe, 0x0e, 0x2a, 0x11, 0x36, 0xee, 0x25, 0x1b, 0x38, 0xea, 0x26, 0xd8, 0xda, 0x2b, 0xf2, 0xff, 0xf9, 0xd4, 0x05, 0x1a, 0xea, 0xf9, 0xee, 0x2a, 0xe6, 0x20, 0xda, 0xf5, 0x34, 0x2d, 0x00, 0xdc, 0xf3, 0x09, 0xfe, 0x08, 0xf4, 0xd7, 0x1e, 0xf9, 0x44, 0xe7, 0x0c, 0xe2, 0x3d, 0x0e, 0x16, 0x10, 0xdb, 0x3e, 0x2d, 0xe8, 0x07, 0x1e, 0x05, 0xcd, 0x1f, 0x2a, 0xe7, 0x36, 0x1f, 0x23, 0x27, 0xf3, 0x15, 0x11, 0x13, 0xbd, 0xf9, 0x19, 0xf6, 0xf4, 0x34, 0x67, 0xf2, 0x27, 0x12, 0x16, 0x0b, 0x76, 0xdd, 0x10, 0xfb, 0x19, 0xf4, 0xf0, 0xd7, 0xee, 0xf4, 0x33, 0x18, 0x05, 0xdd, 0xe4, 0x21, 0x0c, 0xf0, 0x02, 0x11, 0xf9, 0xf7, 0xa2, 0x2f, 0xf4, 0x6e, 0x34, 0xd8, 0xdf, 0x08, 0x39, 0x52, 0x19, 0x3c, 0x26, 0xea, 0xea, 0xdf, 0xde, 0x26, 0x35, 0x51, 0xdf, 0x1b, 0xf4, 0x36, 0xef, 0x00, 0xe5, 0x16, 0x28, 0xc1, 0x6b, 0xff, 0xe3, 0x17, 0xe2, 0x04, 0xb9, 0xdd, 0x03, 0x1a, 0xd2, 0x0f, 0xdb, 0xe2, 0xf6, 0x13, 0x1c, 0x00, 0x07, 0x23, 0xdb, 0x7f, 0x02, 0x34, 0xd3, 0x3d, 0x36, 0xd2, 0xdd, 0x71, 0x11, 0xdf, 0xfa, 0xf7, 0x00, 0x14, 0xe0, 0x0b, 0xdc, 0x4d, 0xb4, 0xbc, 0xf6, 0x24, 0x31, 0xe2, 0x38, 0x1c, 0x1d, 0x14, 0x49, 0xde, 0x0d, 0x4e, 0xe2, 0xd9, 0x21, 0x2f, 0xbd, 0xc2, 0x48, 0x46, 0x1b, 0xf9, 0x04, 0x14, 0x08, 0x13, 0x10, 0xdc, 0x33, 0x24, 0xe5, 0x2e, 0xf8, 0x15, 0x76, 0x1b, 0xfc, 0x24, 0x01, 0xee, 0x0c, 0x1c, 0x1d, 0xf5, 0xd3, 0xcd, 0x14, 0x01, 0xe1, 0xd3, 0x04, 0xd2, 0x14, 0xea, 0x0a, 0xe3, 0x51, 0x2f, 0xd5, 0x09, 0x1d, 0xe4, 0x24, 0xf6, 0xc6, 0xdc, 0x0a, 0xb6, 0xc7, 0xf1, 0xeb, 0xb2, 0xd1, 0x0c, 0xd5, 0xd7, 0x13, 0x2c, 0x17, 0x25, 0x34, 0x12, 0xcb, 0x24, 0x20, 0xeb, 0xe4, 0x1d, 0x30, 0x03, 0xf9, 0x35, 0xd9, 0xef, 0x36, 0xe1, 0xe7, 0xdd, 0xdc, 0x22, 0xf0, 0x21, 0x04, 0x31, 0xbb, 0x26, 0x05, 0xbe, 0x33, 0xd5, 0x13, 0x12, 0xfa, 0xf0, 0xf5, 0x10, 0x28, 0xfe, 0x0d, 0xef, 0x3e, 0xf9, 0xec, 0xea, 0xff, 0xd5, 0xab, 0xa2, 0xcc, 0xe7, 0x11, 0x20, 0x2a, 0x47, 0x2b, 0x00, 0x28, 0xce, 0xc1, 0x46, 0xd1, 0xf3, 0xd0, 0xfa, 0xd1, 0x02, 0xc9, 0x22, 0x2d, 0xea, 0x43, 0x07, 0x18, 0x2c, 0xf7, 0xf2, 0xc9, 0xf3, 0x11, 0xe5, 0x20, 0x1d, 0x3f, 0x15, 0xeb, 0x0c, 0x0a, 0xee, 0x0f, 0xf2, 0xc2, 0x02, 0xdf, 0x02, 0xe2, 0x05, 0x04, 0x08, 0x05, 0xf6, 0x2f, 0x07, 0x1e, 0xb6, 0x1d, 0x36, 0xe8, 0xdd, 0xe8, 0x0b, 0x49, 0x2c, 0x0a, 0x00, 0x08, 0xcf, 0xe4, 0x0c, 0xee, 0xde, 0x01, 0xfe, 0x28, 0xb9, 0xed, 0x15, 0x17, 0xc8, 0xe5, 0x2e, 0x18, 0xfa, 0xec, 0xbd, 0x09, 0xc2, 0x13, 0x03, 0x1f, 0x42, 0xec, 0x04, 0xe2, 0xb6, 0xd5, 0xac, 0xf1, 0x14, 0xf4, 0xf4, 0xc0, 0xc9, 0x14, 0x08, 0xd3, 0xe4, 0x11, 0xf8, 0x1e, 0x30, 0xdf, 0x1a, 0xda, 0x31, 0x04, 0x32, 0xc5, 0x45, 0x3a, 0xd0, 0x25, 0x13, 0x25, 0xfe, 0x28, 0x4c, 0x09, 0x39, 0xc9, 0x3a, 0x3b, 0xf6, 0x2f, 0x1d, 0x1d, 0x21, 0x4b, 0x36, 0x1c, 0xf3, 0xbf, 0x05, 0x7f, 0xba, 0x25, 0x7a, 0xdf, 0x2c, 0x1b, 0x07, 0x21, 0xfd, 0xf7, 0xb9, 0x19, 0xd7, 0xd2, 0xce, 0xd6, 0x0a, 0x4d, 0x23, 0x0a, 0x0d, 0x2a, 0x0c, 0xf9, 0x0a, 0xf1, 0x00, 0xe0, 0x3a, 0xcd, 0xdb, 0x35, 0x2d, 0xc9, 0x22, 0xc3, 0xdd, 0xbf, 0xf9, 0x06, 0xf7, 0x17, 0x14, 0x07, 0xfe, 0xfd, 0x24, 0xaa, 0xf8, 0xe9, 0xd9, 0xda, 0x04, 0xba, 0x30, 0x39, 0x2e, 0xfb, 0x22, 0x06, 0x1e, 0x02, 0xd7, 0x06, 0xf7, 0x03, 0xfc, 0xc9, 0xde, 0xd3, 0xec, 0xba, 0xf0, 0x39, 0x35, 0xef, 0xf8, 0x5f, 0xe7, 0x37, 0x3e, 0x06, 0xb5, 0xf8, 0x2c, 0x0f, 0x42, 0x1b, 0x32, 0xe3, 0xf7, 0xf8, 0x23, 0xee, 0xd0, 0xbf, 0xd1, 0xfe, 0x1d, 0xce, 0x33, 0x03, 0x1b, 0xd5, 0x27, 0x13, 0xda, 0xfd, 0x13, 0xb5, 0xae, 0x11, 0x1d, 0xc7, 0xcd, 0xdb, 0xb9, 0xef, 0x42, 0xcd, 0x26, 0x17, 0xcd, 0xd7, 0xb5, 0xab, 0xde, 0x00, 0xee, 0xc8, 0xf8, 0x3e, 0xf5, 0xf8, 0xb1, 0x92, 0x24, 0x2c, 0xe6, 0x0f, 0x15, 0xd3, 0x02, 0x24, 0xdd, 0xf5, 0xdc, 0xc0, 0x01, 0xe3, 0x1a, 0xe2, 0xfb, 0x24, 0x0a, 0x1d, 0xda, 0x0a, 0x47, 0xbe, 0xbd, 0x34, 0x04, 0xcc, 0x0d, 0x55, 0x21, 0x14, 0x38, 0xfa, 0xd1, 0x03, 0x4e, 0xd0, 0xf1, 0xfd, 0xeb, 0x0a, 0x12, 0x33, 0xcc, 0xe3, 0x30, 0xad, 0xd5, 0xf5, 0xfa, 0x12, 0xd6, 0x0c, 0x04, 0x96, 0x14, 0x0d, 0x1a, 0x24, 0x22, 0x64, 0xd3, 0xd5, 0xd0, 0x0c, 0xfa, 0xaf, 0xe5, 0xcd, 0x23, 0x18, 0xd5, 0x0a, 0x10, 0xfc, 0xbe, 0x0c, 0xf2, 0xd8, 0x31, 0xe7, 0xd2, 0xdd, 0xf7, 0xcd, 0x1c, 0xd8, 0x35, 0xee, 0xd6, 0xd2, 0x23, 0x9c, 0xd3, 0xe6, 0x06, 0xc0, 0xca, 0x07, 0xf2, 0x97, 0xa6, 0x07, 0xb8, 0xb0, 0x2f, 0x12, 0xfc, 0x2e, 0xfa, 0x09, 0xd7, 0xb9, 0xd1, 0xf1, 0xd2, 0x15, 0xeb, 0x6b, 0xe4, 0xd7, 0x22, 0x0e, 0xd0, 0x15, 0xf5, 0xf6, 0xf4, 0xf5, 0x28, 0x2f, 0xe2, 0xce, 0xbc, 0x07, 0x39, 0x15, 0xe2, 0xf0, 0xf2, 0x02, 0xee, 0xec, 0x26, 0xe2, 0x06, 0x2e, 0x0d, 0xe1, 0xe1, 0xec, 0x07, 0x2a, 0xf7, 0x06, 0xfb, 0xd5, 0x1c, 0xd8, 0x1e, 0x1c, 0x10, 0x0b, 0xe3, 0x22, 0x1d, 0xe5, 0x19, 0xe6, 0xdc, 0x19, 0x1f, 0x09, 0xcf, 0x26, 0x08, 0xd1, 0xb7, 0xfd, 0x0e, 0x03, 0x3e, 0xc2, 0x0f, 0xdb, 0x33, 0x16, 0x02, 0x03, 0xeb, 0x25, 0xfa, 0xed, 0x16, 0x10, 0x06, 0x31, 0x2f, 0x1f, 0xec, 0xfc, 0x0f, 0xdd, 0xe7, 0xf4, 0x26, 0xf6, 0x4e, 0x33, 0x81, 0x01, 0x05, 0xe4, 0x23, 0x0f, 0x1d, 0x22, 0x3e, 0xdd, 0xf6, 0xd3, 0x06, 0x09, 0x25, 0xdb, 0xcf, 0x36, 0xf6, 0xa8, 0xc2, 0xf5, 0x14, 0x0a, 0x3a, 0xcf, 0xd1, 0xf3, 0xe7, 0x20, 0xe7, 0x20, 0xb9, 0x31, 0x05, 0xed, 0xc3, 0xdc, 0x37, 0xd6, 0x17, 0xf7, 0x38, 0xe2, 0x2c, 0x1a, 0xe4, 0x25, 0x13, 0x07, 0xd3, 0x5d, 0x15, 0xda, 0x2e, 0x17, 0x18, 0x1a, 0xd3, 0x27, 0x30, 0xfb, 0xfc, 0x1e, 0x04, 0x1a, 0x33, 0xfb, 0xec, 0xe0, 0x0d, 0x20, 0x29, 0x04, 0xee, 0xe9, 0xda, 0x21, 0x1a, 0xfc, 0xe0, 0x12, 0x17, 0xe9, 0x1b, 0x0f, 0xdf, 0xcc, 0x3d, 0xe0, 0x06, 0x42, 0x11, 0x13, 0x3a, 0xe7, 0xf4, 0x23, 0xdd, 0x26, 0xfe, 0xed, 0xee, 0x22, 0x0e, 0xed, 0xe2, 0x9a, 0x1d, 0x2d, 0x06, 0x02, 0x22, 0xeb, 0x1f, 0xce, 0x1e, 0xec, 0xef, 0xe7, 0xf0, 0x0e, 0xff, 0x31, 0xdf, 0x07, 0x0a, 0x37, 0xe4, 0xea, 0xda, 0xed, 0xe5, 0xf2, 0x0d, 0x34, 0x43, 0xe0, 0x21, 0x08, 0x1a, 0xe0, 0xf5, 0xd6, 0xd9, 0xdb, 0x13, 0xba, 0x0f, 0xec, 0xe3, 0xf6, 0xc4, 0x0c, 0xef, 0xfd, 0x3b, 0x2f, 0xf2, 0xe3, 0x8e, 0xbd, 0x19, 0xdf, 0xec, 0xc7, 0x31, 0xdb, 0xce, 0x15, 0xfe, 0x10, 0x2c, 0x45, 0x14, 0x0d, 0xda, 0xed, 0xd2, 0xca, 0xc2, 0x0a, 0xb2, 0xeb, 0xd0, 0xe6, 0xfa, 0xe2, 0xff, 0xfd, 0xd8, 0xf1, 0xd1, 0xed, 0xfe, 0x55, 0xe7, 0x22, 0xeb, 0xee, 0x01, 0x05, 0xd3, 0xe7, 0xda, 0x27, 0x0f, 0xf9, 0xf3, 0x1b, 0xd8, 0x11, 0x02, 0x10, 0xe1, 0xe0, 0x21, 0x2c, 0x1e, 0xd3, 0xcf, 0xc4, 0x14, 0x17, 0x16, 0x0f, 0xfc, 0x0f, 0x1a, 0xde, 0x29, 0x10, 0xe1, 0x0b, 0x29, 0x24, 0x10, 0x01, 0x0f, 0x2f, 0xe9, 0xc6, 0x26, 0xd2, 0xe6, 0xf6, 0xd0, 0xd5, 0x0e, 0x07, 0xfb, 0xe0, 0x1e, 0xe9, 0xe2, 0x24, 0x00, 0x0d, 0x2c, 0xbf, 0x2a, 0xd3, 0x02, 0xdf, 0x3d, 0x1a, 0x16, 0x3b, 0x24, 0xd1, 0xfd, 0x22, 0x22, 0xde, 0xe6, 0xed, 0xdc, 0xe6, 0xef, 0xe2, 0xf5, 0xf1, 0x27, 0x2b, 0xdb, 0x2a, 0xe8, 0x0c, 0x38, 0xfa, 0xdb, 0x09, 0x16, 0x51, 0x2d, 0xdc, 0xf0, 0xdb, 0xfc, 0x7f, 0x24, 0x29, 0x28, 0xe8, 0x2d, 0xee, 0x02, 0xd1, 0x2a, 0xdf, 0x18, 0x00, 0xe7, 0x29, 0x1f, 0x33, 0x19, 0xd4, 0x2a, 0x1d, 0xc2, 0x09, 0x2f, 0x3a, 0x1a, 0x21, 0xfd, 0x1e, 0xd1, 0xe1, 0x1e, 0x4e, 0xf5, 0xf2, 0x13, 0xed, 0x01, 0xfb, 0xef, 0xee, 0xd9, 0x37, 0xe7, 0xd3, 0x0d, 0x1d, 0xfe, 0x32, 0xef, 0xe1, 0x0c, 0xe5, 0x28, 0x06, 0xfe, 0xc4, 0x15, 0x14, 0xe7, 0x37, 0x2d, 0x2b, 0xf9, 0xb3, 0x26, 0xf7, 0x24, 0x0d, 0x0f, 0xdd, 0x0b, 0xb7, 0xd1, 0x3f, 0x02, 0xd8, 0x15, 0x0e, 0x29, 0xf6, 0x1e, 0x17, 0x2b, 0x2c, 0x0a, 0xe4, 0x20, 0x2f, 0x10, 0xed, 0x03, 0xea, 0xb0, 0x07, 0xd5, 0x0a, 0xf8, 0xd9, 0x1e, 0xf4, 0xe2, 0x2d, 0xfa, 0x03, 0x00, 0xd4, 0x20, 0x01, 0x00, 0x43, 0xdc, 0x27, 0xe6, 0x15, 0xed, 0x1a, 0x15, 0x2c, 0xe5, 0xfd, 0x01, 0xf1, 0x01, 0xd1, 0x21, 0x13, 0x0f, 0x94, 0x25, 0xf3, 0x01, 0xf5, 0x28, 0xc0, 0x29, 0x0b, 0xd6, 0xee, 0x1e, 0xff, 0xff, 0x13, 0x3d, 0xe6, 0x31, 0xfd, 0x19, 0xe7, 0xfd, 0x1a, 0x10, 0xc0, 0xf3, 0xb8, 0xdf, 0x31, 0xe3, 0x2b, 0xe6, 0xea, 0x24, 0xb4, 0x05, 0xe7, 0xf3, 0x0b, 0x29, 0xa4, 0xe9, 0x33, 0xd6, 0xfc, 0x05, 0x1d, 0x08, 0x0e, 0xf7, 0xec, 0xce, 0xea, 0xc8, 0xe9, 0xaa, 0x21, 0xc7, 0x85, 0x9e, 0xed, 0x00, 0x3b, 0xe3, 0xed, 0x27, 0xba, 0x4a, 0xb7, 0xc6, 0xc2, 0xd9, 0xd2, 0x27, 0xd4, 0x99, 0xe0, 0xcc, 0x3d, 0x1c, 0xae, 0xf5, 0x9b, 0xd9, 0xca, 0x38, 0xbb, 0xe3, 0x89, 0x9c, 0x9b, 0xf9, 0x11, 0x3a, 0xb7, 0xf4, 0x9c, 0x2c, 0xdf, 0x32, 0x08, 0xbd, 0xd0, 0x04, 0xcf, 0x3f, 0xb6, 0x99, 0xef, 0x15, 0xc6, 0xd4, 0xea, 0xb2, 0xed, 0x01, 0xad, 0x08, 0xe4, 0x2c, 0x03, 0x41, 0xf6, 0x3a, 0x38, 0x25, 0x1b, 0xc5, 0xb5, 0xd0, 0x17, 0xbd, 0xdc, 0x35, 0xf4, 0x3a, 0xbf, 0xf7, 0xc1, 0xda, 0x37, 0xaf, 0xe6, 0xe1, 0xf8, 0x26, 0xf4, 0x37, 0x38, 0xb4, 0x56, 0x0a, 0xca, 0xa1, 0xd7, 0x0b, 0xa0, 0x2e, 0xe2, 0xe0, 0xbb, 0x82, 0xf7, 0x46, 0xbe, 0xb8, 0xfb, 0xe7, 0x1b, 0xdd, 0x9d, 0x9f, 0xd6, 0x3f, 0xd9, 0x25, 0x21, 0xf7, 0x81, 0xef, 0x2d, 0x3b, 0xd9, 0xaf, 0x98, 0xcd, 0xc4, 0x24, 0xd7, 0xbd, 0x2b, 0xca, 0x0e, 0xcc, 0xe1, 0xd8, 0x32, 0xe0, 0xc8, 0x25, 0xcb, 0xa9, 0x17, 0x95, 0xe4, 0x28, 0xdf, 0xd4, 0x1f, 0x28, 0xc1, 0x1d, 0x3b, 0xcf, 0xb0, 0xfe, 0xf9, 0xa1, 0x99, 0x0e, 0xe6, 0xb8, 0xeb, 0xf1, 0xea, 0x0a, 0x29, 0x12, 0xd6, 0x1b, 0xe9, 0x14, 0x29, 0xc2, 0x19, 0xb0, 0x03, 0xf6, 0xc4, 0x41, 0xd6, 0xce, 0xf9, 0xd0, 0xe4, 0x12, 0xfc, 0xb4, 0x1a, 0x15, 0xf1, 0xab, 0xc3, 0xaf, 0x22, 0xd5, 0x32, 0xaa, 0xe2, 0x34, 0xcd, 0xf5, 0xd2, 0x09, 0x41, 0xcf, 0xe0, 0x07, 0x30, 0xa1, 0x08, 0xc2, 0x45, 0x06, 0xd9, 0xbf, 0x9b, 0xa6, 0x33, 0xf5, 0x11, 0x27, 0xe9, 0x38, 0xb1, 0x5c, 0xeb, 0xcb, 0xd8, 0xdb, 0x27, 0x39, 0xba, 0x0a, 0x12, 0x04, 0x4a, 0x42, 0xb0, 0xd1, 0xb0, 0xdf, 0xca, 0x3b, 0xb4, 0xa7, 0x1d, 0x14, 0xf0, 0xaa, 0xc3, 0xc9, 0xe0, 0xe4, 0x90, 0xd2, 0x3c, 0x97, 0xf0, 0xe3, 0xd1, 0xd9, 0x18, 0x19, 0xdf, 0xe4, 0xcd, 0x01, 0xf8, 0x2d, 0x28, 0xac, 0xd0, 0xc3, 0x44, 0xda, 0x3c, 0xfd, 0x34, 0x00, 0x30, 0xd6, 0x1b, 0x03, 0x4f, 0xcc, 0x07, 0xf9, 0x0b, 0xfd, 0x1b, 0x0a, 0x34, 0xe8, 0xed, 0x2f, 0x06, 0x07, 0xe8, 0xe6, 0x37, 0x14, 0x2a, 0xf4, 0x20, 0xfa, 0x0b, 0x05, 0x0d, 0x18, 0xf3, 0x35, 0x0e, 0x02, 0xc5, 0xf3, 0x0b, 0x2b, 0xaa, 0xcc, 0xcd, 0x26, 0xd6, 0x1c, 0x32, 0x07, 0x00, 0xf7, 0x02, 0xfa, 0x33, 0x0f, 0x20, 0x02, 0xe9, 0x29, 0xfd, 0xe0, 0xe0, 0x14, 0x11, 0x00, 0x0e, 0x25, 0xcb, 0xcf, 0xf1, 0xf4, 0xcb, 0xdc, 0xde, 0x36, 0xf8, 0x23, 0x06, 0xe7, 0xdb, 0xf6, 0x07, 0x02, 0xe4, 0x0c, 0xf3, 0xaa, 0xee, 0x0f, 0xc3, 0x01, 0xfa, 0xf5, 0xe6, 0x1c, 0xd1, 0x16, 0xed, 0x20, 0x05, 0x09, 0xd8, 0x0b, 0xf2, 0x49, 0xe9, 0x32, 0x1f, 0xf9, 0x0e, 0x00, 0x52, 0xf3, 0xea, 0x12, 0xcd, 0x0e, 0x04, 0xdf, 0xdf, 0xc2, 0xd8, 0x14, 0x41, 0x19, 0xee, 0x3e, 0x1c, 0x15, 0x13, 0xe5, 0xdf, 0xf3, 0x10, 0xe1, 0x27, 0x07, 0xb8, 0xf1, 0xe6, 0xce, 0xdf, 0xdf, 0x2a, 0x1a, 0x2d, 0x0f, 0x26, 0x1b, 0xe8, 0x0f, 0xd9, 0x14, 0x14, 0xf6, 0xe9, 0x28, 0x19, 0x27, 0xcb, 0xf1, 0x07, 0xcc, 0x38, 0xc1, 0xd6, 0xe0, 0x0f, 0x00, 0xfc, 0xfb, 0x1e, 0xda, 0x04, 0x14, 0xf7, 0xda, 0x12, 0x12, 0xf6, 0x03, 0x18, 0x05, 0x3c, 0xd6, 0x02, 0xff, 0xe9, 0xec, 0xdc, 0xca, 0x2c, 0x2b, 0xf5, 0xea, 0x15, 0x32, 0x06, 0xe9, 0x11, 0xec, 0x03, 0x0c, 0xf5, 0xc0, 0x1c, 0xbb, 0x73, 0xe8, 0x12, 0x1e, 0xbe, 0x27, 0x0e, 0xb0, 0xda, 0xa2, 0xcd, 0x02, 0x9a, 0xfa, 0xf6, 0xca, 0xfd, 0xf0, 0xc5, 0xde, 0xe1, 0x7f, 0xf4, 0xef, 0x2e, 0xde, 0x17, 0xd3, 0xff, 0x4b, 0xd4, 0xa8, 0x12, 0xdc, 0xf6, 0x1b, 0xe6, 0xf3, 0xf7, 0x13, 0x95, 0xe6, 0xf6, 0xf7, 0xeb, 0xd7, 0x40, 0xc0, 0xec, 0xe6, 0xc6, 0xc8, 0xd6, 0x04, 0xfe, 0x12, 0x5e, 0xc6, 0xb3, 0xe1, 0x0f, 0x0a, 0x09, 0xe1, 0xd7, 0x1d, 0x23, 0x12, 0x1e, 0xcd, 0x53, 0xea, 0xd4, 0x15, 0xda, 0x12, 0xff, 0x22, 0x0d, 0x17, 0x09, 0xd0, 0xeb, 0xfd, 0xd3, 0xe0, 0x15, 0xf4, 0x46, 0xf1, 0x9e, 0x26, 0xd9, 0xc0, 0x02, 0xb5, 0xdd, 0xd5, 0x31, 0x18, 0xf5, 0x00, 0x06, 0x97, 0x14, 0x0c, 0x0f, 0xf5, 0xf8, 0xc6, 0x2b, 0x0e, 0xbe, 0xb2, 0x0c, 0x02, 0xdf, 0x16, 